<unk>	0
<s>	0
</s>	0
▁t	-0
he	-1
▁a	-2
▁w	-3
▁d	-4
in	-5
▁s	-6
or	-7
▁the	-8
nd	-9
▁f	-10
▁o	-11
ey	-12
▁b	-13
▁m	-14
▁g	-15
▁p	-16
on	-17
er	-18
▁and	-19
en	-20
is	-21
▁h	-22
▁to	-23
ou	-24
ll	-25
re	-26
▁n	-27
▁of	-28
it	-29
at	-30
es	-31
ing	-32
om	-33
▁k	-34
▁c	-35
▁go	-36
▁for	-37
▁.	-38
▁y	-39
le	-40
ar	-41
ke	-42
▁e	-43
▁dey	-44
▁di	-45
an	-46
od	-47
ve	-48
▁u	-49
em	-50
▁I	-51
▁th	-52
et	-53
▁l	-54
▁,	-55
▁wey	-56
ake	-57
as	-58
▁be	-59
se	-60
▁J	-61
▁you	-62
ut	-63
▁A	-64
▁in	-65
ay	-66
▁he	-67
▁dem	-68
ow	-69
▁G	-70
im	-71
ho	-72
ad	-73
ot	-74
am	-75
ill	-76
▁on	-77
▁God	-78
id	-79
▁we	-80
ed	-81
ac	-82
ah	-83
▁S	-84
ol	-85
ir	-86
▁make	-87
al	-88
ith	-89
▁B	-90
▁st	-91
▁un	-92
us	-93
▁do	-94
ent	-95
▁ha	-96
▁fr	-97
il	-98
▁T	-99
ord	-100
▁E	-101
▁sey	-102
▁with	-103
ip	-104
▁am	-105
▁D	-106
ur	-107
▁li	-108
op	-109
▁re	-110
▁una	-111
el	-112
▁an	-113
▁W	-114
▁r	-115
ver	-116
▁from	-117
▁pr	-118
▁M	-119
▁is	-120
ive	-121
▁And	-122
▁bi	-123
her	-124
os	-125
▁will	-126
ion	-127
ic	-128
gh	-129
▁L	-130
▁as	-131
▁that	-132
▁his	-133
▁se	-134
▁“	-135
ome	-136
ain	-137
▁kon	-138
▁all	-139
▁Je	-140
and	-141
▁nor	-142
▁sa	-143
▁no	-144
▁na	-145
▁my	-146
ipol	-147
▁me	-148
▁pe	-149
▁your	-150
▁pipol	-151
ers	-152
etin	-153
ven	-154
▁wh	-155
▁en	-156
▁Jeho	-157
▁H	-158
ra	-159
▁1	-160
▁was	-161
▁so	-162
▁don	-163
▁not	-164
▁one	-165
▁give	-166
ople	-167
▁it	-168
hen	-169
vah	-170
▁Jehovah	-171
▁us	-172
ong	-173
▁get	-174
▁have	-175
▁P	-176
▁:	-177
ist	-178
▁who	-179
▁people	-180
au	-181
if	-182
▁N	-183
ght	-184
▁sh	-185
st	-186
▁le	-187
ell	-188
▁their	-189
ld	-190
▁Lord	-191
▁him	-192
ame	-193
▁yu	-194
ear	-195
▁are	-196
art	-197
▁take	-198
▁tr	-199
▁?	-200
▁wetin	-201
out	-202
▁they	-203
▁man	-204
▁wor	-205
▁them	-206
▁fit	-207
ib	-208
▁kom	-209
▁put	-210
▁Is	-211
▁come	-212
▁like	-213
ge	-214
ak	-215
all	-216
▁or	-217
ter	-218
ore	-219
ant	-220
ace	-221
▁dis	-222
ry	-223
ish	-224
est	-225
ly	-226
ight	-227
▁F	-228
ep	-229
pp	-230
▁br	-231
ess	-232
ose	-233
▁The	-234
▁But	-235
▁de	-236
ct	-237
▁this	-238
▁pl	-239
▁C	-240
▁said	-241
ings	-242
▁ab	-243
ind	-244
▁ag	-245
▁but	-246
▁ch	-247
▁our	-248
ide	-249
▁ne	-250
rael	-251
▁So	-252
▁j	-253
▁Y	-254
▁Israel	-255
▁mi	-256
▁Jes	-257
▁O	-258
▁tell	-259
▁by	-260
ok	-261
▁Jesus	-262
▁king	-263
▁lo	-264
▁kn	-265
ren	-266
▁well	-267
▁(	-268
▁again	-269
kos	-270
▁tim	-271
ud	-272
ody	-273
wn	-274
▁know	-275
▁when	-276
ation	-277
▁about	-278
other	-279
▁out	-280
▁up	-281
ch	-282
ause	-283
▁”	-284
ab	-285
▁had	-286
ust	-287
▁ev	-288
fe	-289
▁fo	-290
th	-291
ild	-292
ap	-293
ere	-294
▁at	-295
▁say	-296
▁day	-297
ich	-298
▁any	-299
fore	-300
▁bec	-301
▁hel	-302
▁has	-303
▁help	-304
▁K	-305
▁were	-306
ach	-307
▁bikos	-308
▁land	-309
▁)	-310
▁v	-311
▁2	-312
▁time	-313
ade	-314
alk	-315
▁if	-316
ce	-317
▁ser	-318
ack	-319
▁gr	-320
▁im	-321
▁work	-322
ave	-323
▁son	-324
▁good	-325
▁R	-326
▁ever	-327
▁before	-328
▁which	-329
▁made	-330
▁su	-331
.”	-332
ath	-333
▁talk	-334
oun	-335
▁sp	-336
av	-337
▁Na	-338
▁si	-339
▁dia	-340
ik	-341
▁For	-342
ul	-343
▁let	-344
ue	-345
▁still	-346
▁wi	-347
here	-348
▁‘	-349
▁hou	-350
ie	-351
ible	-352
▁things	-353
ass	-354
▁men	-355
▁sin	-356
urn	-357
ree	-358
ob	-359
▁hand	-360
▁tin	-361
▁word	-362
▁aw	-363
ise	-364
sel	-365
ast	-366
aw	-367
▁gi	-368
▁Ch	-369
▁life	-370
ther	-371
ite	-372
ple	-373
▁happ	-374
our	-375
▁—	-376
▁town	-377
▁house	-378
ont	-379
ate	-380
um	-381
▁Wh	-382
▁tw	-383
▁there	-384
▁Make	-385
▁ar	-386
ount	-387
▁Chr	-388
fer	-389
▁bl	-390
▁how	-391
▁even	-392
▁com	-393
▁back	-394
ving	-395
▁Dem	-396
▁al	-397
sh	-398
▁use	-399
▁her	-400
▁Bible	-401
▁love	-402
ine	-403
▁ex	-404
iz	-405
oy	-406
▁Christ	-407
reat	-408
▁because	-409
▁may	-410
▁child	-411
▁see	-412
▁Yu	-413
▁tok	-414
▁way	-415
▁mind	-416
▁year	-417
vant	-418
rong	-419
▁came	-420
▁Th	-421
▁place	-422
ia	-423
orn	-424
avid	-425
ould	-426
▁brother	-427
▁other	-428
▁where	-429
ard	-430
lem	-431
ikin	-432
▁int	-433
▁Jer	-434
ice	-435
les	-436
erson	-437
▁dat	-438
▁what	-439
▁David	-440
ies	-441
▁went	-442
▁yor	-443
▁every	-444
qu	-445
▁fa	-446
▁pre	-447
▁some	-448
irit	-449
▁’	-450
▁bet	-451
▁-	-452
▁against	-453
aul	-454
▁those	-455
▁over	-456
ga	-457
dom	-458
ness	-459
▁meet	-460
▁into	-461
▁person	-462
▁If	-463
▁He	-464
▁As	-465
▁wen	-466
▁pikin	-467
ort	-468
ous	-469
▁she	-470
▁children	-471
own	-472
ather	-473
ire	-474
eep	-475
un	-476
▁cho	-477
▁show	-478
▁pass	-479
oly	-480
amil	-481
▁af	-482
▁gave	-483
one	-484
▁famil	-485
ink	-486
ound	-487
▁ans	-488
▁3	-489
▁great	-490
ves	-491
▁King	-492
ure	-493
▁name	-494
▁eart	-495
▁evr	-496
apa	-497
irst	-498
age	-499
▁faith	-500
▁Di	-501
esin	-502
▁keep	-503
are	-504
ough	-505
▁strong	-506
▁Ab	-507
iest	-508
▁Den	-509
▁fear	-510
▁und	-511
▁first	-512
▁heart	-513
pt	-514
ons	-515
▁two	-516
arry	-517
▁die	-518
▁tins	-519
▁been	-520
▁Jud	-521
▁Mos	-522
▁How	-523
▁body	-524
▁Z	-525
ull	-526
iah	-527
▁family	-528
▁kill	-529
ru	-530
▁fe	-531
ity	-532
▁away	-533
▁send	-534
side	-535
▁did	-536
alem	-537
▁down	-538
▁want	-539
usalem	-540
ans	-541
▁holy	-542
▁pesin	-543
▁priest	-544
llow	-545
▁food	-546
▁Jerusalem	-547
▁Then	-548
▁only	-549
▁years	-550
▁death	-551
▁spirit	-552
self	-553
▁many	-554
▁Moses	-555
▁rish	-556
▁papa	-557
▁took	-558
▁given	-559
ber	-560
▁We	-561
▁follow	-562
aven	-563
▁ko	-564
ally	-565
▁can	-566
▁res	-567
▁among	-568
▁tak	-569
▁servant	-570
ment	-571
▁need	-572
▁hear	-573
▁wom	-574
ty	-575
▁end	-576
ile	-577
▁evil	-578
▁U	-579
gy	-580
▁new	-581
▁brothers	-582
body	-583
ig	-584
▁earth	-585
ked	-586
▁stay	-587
▁turn	-588
▁after	-589
ta	-590
▁qu	-591
▁Judah	-592
te	-593
arn	-594
▁sons	-595
▁heaven	-596
ory	-597
▁read	-598
▁happen	-599
well	-600
ction	-601
▁pray	-602
▁This	-603
ag	-604
▁more	-605
ph	-606
▁right	-607
ife	-608
ash	-609
▁too	-610
▁sm	-611
gypt	-612
▁own	-613
▁ey	-614
da	-615
▁Egypt	-616
▁In	-617
▁world	-618
ec	-619
led	-620
▁serve	-621
▁just	-622
▁father	-623
▁part	-624
ond	-625
▁Wen	-626
ang	-627
▁rem	-628
▁full	-629
▁ord	-630
▁mon	-631
▁dr	-632
idren	-633
ood	-634
▁bad	-635
▁law	-636
oth	-637
▁Wetin	-638
aya	-639
tain	-640
▁What	-641
iel	-642
▁thing	-643
▁sw	-644
▁des	-645
ost	-646
▁offer	-647
▁ear	-648
▁burn	-649
igh	-650
▁near	-651
▁prop	-652
▁Paul	-653
oh	-654
▁kind	-655
▁ro	-656
Make	-657
▁would	-658
▁supp	-659
▁wife	-660
▁When	-661
lean	-662
ect	-663
▁inside	-664
enty	-665
▁4	-666
▁bu	-667
▁true	-668
▁these	-669
ower	-670
▁der	-671
▁exam	-672
▁sist	-673
get	-674
▁Re	-675
▁You	-676
▁disc	-677
osh	-678
▁bo	-679
▁happy	-680
▁Oga	-681
▁woman	-682
▁cont	-683
▁;	-684
▁ask	-685
▁fl	-686
▁head	-687
▁words	-688
ffer	-689
na	-690
ater	-691
▁must	-692
▁den	-693
▁now	-694
▁pro	-695
▁sent	-696
▁thr	-697
▁face	-698
▁preach	-699
▁born	-700
▁better	-701
ck	-702
az	-703
▁te	-704
oin	-705
▁off	-706
▁living	-707
▁learn	-708
▁bless	-709
ub	-710
▁!	-711
▁pra	-712
▁bre	-713
▁jud	-714
▁fight	-715
▁ang	-716
▁ent	-717
▁wr	-718
▁side	-719
▁war	-720
▁chop	-721
ne	-722
▁days	-723
▁ansa	-724
▁rest	-725
▁El	-726
▁dist	-727
emple	-728
▁doz	-729
▁gl	-730
▁att	-731
▁under	-732
▁think	-733
▁example	-734
▁op	-735
ek	-736
▁look	-737
▁long	-738
▁oda	-739
▁peace	-740
▁small	-741
reg	-742
▁resp	-743
▁shidren	-744
ongreg	-745
▁awa	-746
ongregation	-747
ibe	-748
hing	-749
way	-750
▁bring	-751
ever	-752
▁enter	-753
pl	-754
red	-755
thing	-756
▁ad	-757
ro	-758
ng	-759
itin	-760
▁prom	-761
▁congregation	-762
▁cl	-763
▁Am	-764
▁three	-765
▁its	-766
va	-767
▁big	-768
cc	-769
▁komot	-770
ama	-771
▁arm	-772
▁sk	-773
ledge	-774
▁than	-775
▁build	-776
▁discip	-777
ents	-778
ship	-779
▁5	-780
▁another	-781
▁No	-782
eb	-783
▁lead	-784
▁money	-785
▁paw	-786
▁knowledge	-787
ief	-788
ange	-789
▁con	-790
▁Christi	-791
▁fire	-792
▁then	-793
▁ru	-794
ision	-795
▁pawa	-796
▁Why	-797
▁komm	-798
▁ob	-799
uth	-800
▁evritin	-801
ations	-802
▁19	-803
▁cr	-804
jas	-805
▁taken	-806
▁My	-807
ase	-808
▁karry	-809
▁through	-810
▁without	-811
iend	-812
ial	-813
▁distr	-814
ick	-815
und	-816
▁won	-817
itness	-818
wer	-819
hed	-820
res	-821
ting	-822
▁save	-823
ountry	-824
ful	-825
▁rule	-826
▁same	-827
▁saying	-828
▁mat	-829
▁koll	-830
▁says	-831
▁young	-832
▁Ph	-833
tin	-834
ds	-835
▁old	-836
ept	-837
▁ve	-838
▁gold	-839
atch	-840
gether	-841
iver	-842
▁hon	-843
▁really	-844
▁done	-845
▁power	-846
ites	-847
▁together	-848
▁start	-849
▁Se	-850
tar	-851
▁far	-852
▁gu	-853
▁friend	-854
▁answer	-855
▁num	-856
▁stop	-857
selves	-858
ove	-859
▁teach	-860
▁6	-861
▁mak	-862
▁Una	-863
▁hands	-864
ense	-865
▁distroy	-866
▁Joh	-867
oss	-868
▁Le	-869
▁promise	-870
▁rite	-871
uch	-872
▁eyes	-873
oda	-874
▁angel	-875
▁Bab	-876
oub	-877
ence	-878
▁being	-879
▁Af	-880
▁An	-881
▁Sh	-882
ark	-883
over	-884
▁vex	-885
▁open	-886
▁She	-887
▁choose	-888
▁savant	-889
day	-890
ope	-891
▁Even	-892
▁fall	-893
▁might	-894
ison	-895
ts	-896
rin	-897
▁saw	-898
▁rul	-899
▁mama	-900
▁ready	-901
per	-902
▁Let	-903
att	-904
▁altar	-905
▁drink	-906
▁temple	-907
▁Jose	-908
lear	-909
▁Saul	-910
▁whom	-911
ota	-912
▁high	-913
▁offering	-914
▁Jew	-915
▁John	-916
undred	-917
▁app	-918
uit	-919
band	-920
▁kommand	-921
▁Now	-922
▁Do	-923
▁hundred	-924
ait	-925
apt	-926
▁number	-927
▁12	-928
usband	-929
▁stand	-930
▁Man	-931
▁One	-932
ret	-933
▁sojas	-934
▁All	-935
▁door	-936
▁free	-937
▁list	-938
▁servants	-939
▁sec	-940
▁four	-941
▁husband	-942
ious	-943
▁cur	-944
▁fin	-945
▁till	-946
▁kl	-947
▁glory	-948
ary	-949
▁Sam	-950
00	-951
▁cause	-952
▁seven	-953
rect	-954
rah	-955
ada	-956
▁It	-957
old	-958
▁matter	-959
urp	-960
ai	-961
▁ofrin	-962
▁does	-963
▁differ	-964
imal	-965
▁towns	-966
asure	-967
ance	-968
▁naw	-969
▁prison	-970
post	-971
ways	-972
▁today	-973
▁rel	-974
▁animal	-975
ign	-976
.’	-977
ikos	-978
ement	-979
▁Bet	-980
ember	-981
▁feel	-982
▁book	-983
?”	-984
▁times	-985
▁dest	-986
▁obey	-987
ria	-988
aught	-989
ated	-990
▁clear	-991
▁Be	-992
▁tribe	-993
▁stren	-994
▁prophe	-995
▁why	-996
▁ones	-997
▁disciples	-998
▁Ah	-999
ibody	-1000
▁join	-1001
atan	-1002
▁acc	-1003
estion	-1004
ruction	-1005
cr	-1006
▁Bec	-1007
▁run	-1008
▁judge	-1009
ri	-1010
▁They	-1011
▁kingdom	-1012
▁got	-1013
▁worship	-1014
aka	-1015
▁news	-1016
▁wiked	-1017
gr	-1018
▁always	-1019
▁mount	-1020
▁different	-1021
iv	-1022
▁hard	-1023
ertain	-1024
▁blood	-1025
▁round	-1026
very	-1027
▁joy	-1028
▁Because	-1029
ala	-1030
omet	-1031
▁dead	-1032
▁Lev	-1033
ual	-1034
▁vo	-1035
▁sheep	-1036
leep	-1037
▁mean	-1038
▁attack	-1039
▁11	-1040
▁reach	-1041
▁10	-1042
sef	-1043
▁enem	-1044
▁sleep	-1045
ime	-1046
▁Kingdom	-1047
▁bir	-1048
ij	-1049
ress	-1050
ted	-1051
▁betta	-1052
▁waste	-1053
▁13	-1054
▁wota	-1055
▁plenty	-1056
▁waka	-1057
▁priests	-1058
▁bapt	-1059
▁suppose	-1060
aron	-1061
▁sense	-1062
▁troub	-1063
▁hum	-1064
▁mout	-1065
▁such	-1066
ward	-1067
!”	-1068
▁care	-1069
▁finish	-1070
▁wosh	-1071
▁Bikos	-1072
▁inc	-1073
▁himself	-1074
▁dec	-1075
▁wait	-1076
raham	-1077
▁water	-1078
▁certain	-1079
▁bel	-1080
▁Aaron	-1081
olom	-1082
▁7	-1083
olomon	-1084
rif	-1085
▁par	-1086
▁daught	-1087
▁orders	-1088
ata	-1089
ition	-1090
▁front	-1091
▁sil	-1092
▁Pet	-1093
▁prof	-1094
▁hope	-1095
▁prayer	-1096
▁leave	-1097
▁desire	-1098
▁destruction	-1099
▁anytin	-1100
▁stud	-1101
▁eye	-1102
▁fruit	-1103
▁Solomon	-1104
▁Abraham	-1105
▁evribody	-1106
oab	-1107
▁forg	-1108
▁mar	-1109
▁po	-1110
▁eld	-1111
▁Sp	-1112
▁anybody	-1113
▁meeting	-1114
▁wis	-1115
▁praise	-1116
row	-1117
▁unc	-1118
▁support	-1119
▁15	-1120
▁become	-1121
▁country	-1122
▁apost	-1123
▁others	-1124
vel	-1125
▁each	-1126
▁ass	-1127
▁question	-1128
ize	-1129
▁whose	-1130
▁Dis	-1131
ua	-1132
▁9	-1133
▁ple	-1134
▁prob	-1135
rifice	-1136
▁Christian	-1137
▁kings	-1138
▁should	-1139
▁seen	-1140
angu	-1141
▁gri	-1142
erc	-1143
▁everything	-1144
gn	-1145
▁able	-1146
▁wrong	-1147
▁problem	-1148
▁thir	-1149
▁14	-1150
oud	-1151
▁kept	-1152
oura	-1153
▁live	-1154
mon	-1155
▁wall	-1156
▁wont	-1157
▁order	-1158
aces	-1159
▁try	-1160
▁skata	-1161
▁cut	-1162
▁purp	-1163
▁wisdom	-1164
▁langu	-1165
▁Isa	-1166
▁fiel	-1167
▁cons	-1168
▁sea	-1169
▁See	-1170
af	-1171
▁pres	-1172
▁Ar	-1173
▁tra	-1174
▁here	-1175
▁somet	-1176
▁To	-1177
▁wine	-1178
▁Spirit	-1179
▁sisters	-1180
▁imp	-1181
onish	-1182
▁bread	-1183
▁ponish	-1184
do	-1185
vent	-1186
▁turned	-1187
▁pay	-1188
Na	-1189
▁Matt	-1190
▁Fr	-1191
▁six	-1192
hes	-1193
lesh	-1194
▁became	-1195
▁beg	-1196
▁forever	-1197
▁curse	-1198
▁flesh	-1199
▁act	-1200
ahala	-1201
▁never	-1202
fect	-1203
▁gada	-1204
▁Ps	-1205
▁Joseph	-1206
ead	-1207
alse	-1208
▁tent	-1209
▁ways	-1210
▁contr	-1211
▁20	-1212
▁oga	-1213
▁Dan	-1214
▁remember	-1215
▁pain	-1216
▁wise	-1217
ousand	-1218
▁find	-1219
▁gone	-1220
ilist	-1221
▁Who	-1222
▁comes	-1223
act	-1224
een	-1225
▁Satan	-1226
▁false	-1227
▁truth	-1228
hel	-1229
rue	-1230
▁Josh	-1231
▁Ben	-1232
ci	-1233
▁thousand	-1234
ged	-1235
▁sof	-1236
▁nobody	-1237
▁streng	-1238
▁language	-1239
ush	-1240
▁Ad	-1241
▁sak	-1242
▁listin	-1243
where	-1244
▁chief	-1245
▁contin	-1246
▁That	-1247
▁shame	-1248
eous	-1249
▁per	-1250
▁fine	-1251
▁wahala	-1252
so	-1253
its	-1254
▁sor	-1255
▁sister	-1256
▁while	-1257
▁whole	-1258
▁remain	-1259
▁St	-1260
▁bil	-1261
▁plant	-1262
lon	-1263
▁sign	-1264
▁very	-1265
able	-1266
ones	-1267
▁voice	-1268
▁kry	-1269
▁mess	-1270
▁blessing	-1271
▁Heb	-1272
▁sure	-1273
▁tink	-1274
▁last	-1275
▁sl	-1276
▁unt	-1277
▁anoda	-1278
stead	-1279
▁righteous	-1280
aut	-1281
esh	-1282
▁enemies	-1283
▁Joshua	-1284
▁After	-1285
▁nations	-1286
▁witness	-1287
joy	-1288
▁nothing	-1289
ze	-1290
▁woship	-1291
▁oil	-1292
▁light	-1293
▁stone	-1294
▁Read	-1295
▁clean	-1296
▁praiz	-1297
▁Peter	-1298
▁preaching	-1299
▁sins	-1300
▁grand	-1301
▁gives	-1302
▁groun	-1303
▁wond	-1304
▁enjoy	-1305
oken	-1306
▁klot	-1307
▁though	-1308
▁cry	-1309
▁ten	-1310
ashon	-1311
▁could	-1312
▁marry	-1313
ale	-1314
ana	-1315
eet	-1316
▁nam	-1317
▁poor	-1318
irc	-1319
uj	-1320
▁sc	-1321
▁16	-1322
▁sal	-1323
▁reas	-1324
▁sakrifice	-1325
▁top	-1326
▁allow	-1327
▁Witness	-1328
▁tree	-1329
▁night	-1330
▁purpose	-1331
uju	-1332
▁div	-1333
▁study	-1334
▁burned	-1335
▁gods	-1336
▁juju	-1337
▁plan	-1338
▁sword	-1339
▁bilive	-1340
ought	-1341
ceive	-1342
vice	-1343
▁set	-1344
▁merc	-1345
▁wear	-1346
▁belie	-1347
▁mother	-1348
alm	-1349
ween	-1350
aters	-1351
▁decision	-1352
▁five	-1353
▁grow	-1354
▁move	-1355
▁field	-1356
▁making	-1357
elf	-1358
▁fool	-1359
▁rec	-1360
▁much	-1361
fort	-1362
ubl	-1363
ione	-1364
▁sweet	-1365
go	-1366
ely	-1367
▁herit	-1368
▁spiritual	-1369
▁bas	-1370
▁anything	-1371
▁win	-1372
▁continue	-1373
▁themselves	-1374
▁going	-1375
▁guide	-1376
zek	-1377
▁Some	-1378
▁broken	-1379
ylon	-1380
▁Babylon	-1381
▁heritage	-1382
▁fre	-1383
▁From	-1384
orning	-1385
▁17	-1386
▁Job	-1387
▁pun	-1388
▁hill	-1389
000	-1390
▁Rom	-1391
▁hor	-1392
▁dark	-1393
▁cover	-1394
▁Give	-1395
▁mouth	-1396
▁morning	-1397
,000	-1398
▁carry	-1399
▁pione	-1400
▁fathers	-1401
▁reg	-1402
▁Father	-1403
ult	-1404
▁until	-1405
ijah	-1406
▁str	-1407
ider	-1408
▁Pro	-1409
orrect	-1410
▁punish	-1411
▁change	-1412
▁prophet	-1413
ilon	-1414
▁Jac	-1415
▁cloth	-1416
▁Go	-1417
▁tish	-1418
▁Jacob	-1419
▁also	-1420
▁twenty	-1421
▁trust	-1422
▁reason	-1423
▁respect	-1424
ces	-1425
itt	-1426
uel	-1427
▁wrath	-1428
▁sing	-1429
▁profet	-1430
▁animals	-1431
erst	-1432
▁mercy	-1433
▁wood	-1434
▁lie	-1435
▁unclean	-1436
amp	-1437
▁prot	-1438
▁quick	-1439
▁gen	-1440
iness	-1441
ream	-1442
▁Levi	-1443
▁human	-1444
▁message	-1445
▁overc	-1446
▁seed	-1447
▁inv	-1448
▁daughter	-1449
▁Babilon	-1450
▁month	-1451
▁mountain	-1452
▁beast	-1453
▁giving	-1454
▁offerings	-1455
▁Christians	-1456
ses	-1457
ities	-1458
▁lif	-1459
▁coming	-1460
▁measure	-1461
▁call	-1462
▁dry	-1463
▁places	-1464
▁At	-1465
ates	-1466
right	-1467
▁deep	-1468
▁strength	-1469
▁sou	-1470
▁Phar	-1471
wor	-1472
▁mel	-1473
▁ef	-1474
▁righteousness	-1475
▁Tim	-1476
▁publ	-1477
▁trouble	-1478
▁Wi	-1479
▁salv	-1480
▁believe	-1481
▁apostle	-1482
▁forgive	-1483
▁punishment	-1484
▁road	-1485
▁sound	-1486
rection	-1487
▁between	-1488
sed	-1489
top	-1490
▁river	-1491
▁sid	-1492
▁katch	-1493
▁present	-1494
▁enc	-1495
ines	-1496
▁best	-1497
▁having	-1498
▁es	-1499
▁underst	-1500
up	-1501
ner	-1502
▁soul	-1503
alth	-1504
▁val	-1505
▁char	-1506
▁thought	-1507
ning	-1508
alley	-1509
▁makes	-1510
▁Holy	-1511
▁bear	-1512
▁doing	-1513
▁leaders	-1514
▁requ	-1515
▁sofa	-1516
▁outside	-1517
▁write	-1518
ati	-1519
▁Cor	-1520
▁circ	-1521
▁safe	-1522
▁ref	-1523
▁neva	-1524
▁leg	-1525
▁song	-1526
▁comot	-1527
▁something	-1528
ges	-1529
ordan	-1530
▁comple	-1531
amb	-1532
ock	-1533
▁east	-1534
▁Jordan	-1535
▁secret	-1536
▁Yes	-1537
▁encoura	-1538
▁looking	-1539
▁En	-1540
▁reward	-1541
▁teaching	-1542
▁Many	-1543
alf	-1544
▁army	-1545
▁thru	-1546
▁wonder	-1547
▁agre	-1548
▁travel	-1549
▁upright	-1550
read	-1551
▁pioneer	-1552
▁Son	-1553
▁fif	-1554
▁chur	-1555
▁hearts	-1556
iss	-1557
▁whe	-1558
▁birth	-1559
▁gener	-1560
▁salvation	-1561
▁spe	-1562
▁Daniel	-1563
▁Br	-1564
uk	-1565
oam	-1566
amin	-1567
reet	-1568
▁god	-1569
▁Moab	-1570
▁yourself	-1571
▁elders	-1572
▁understand	-1573
ook	-1574
▁bran	-1575
▁ears	-1576
▁room	-1577
▁control	-1578
▁agreement	-1579
gan	-1580
akob	-1581
▁hate	-1582
▁exper	-1583
▁Any	-1584
▁Ass	-1585
▁women	-1586
ew	-1587
land	-1588
plain	-1589
▁Jews	-1590
▁trow	-1591
ention	-1592
▁grain	-1593
▁import	-1594
▁Your	-1595
▁train	-1596
xt	-1597
▁honor	-1598
▁klean	-1599
▁By	-1600
▁Pe	-1601
▁Naw	-1602
▁dif	-1603
▁gra	-1604
bi	-1605
zz	-1606
▁ox	-1607
▁goes	-1608
▁kover	-1609
▁hearing	-1610
God	-1611
uthor	-1612
▁Word	-1613
▁both	-1614
▁break	-1615
aph	-1616
▁foolish	-1617
ern	-1618
▁On	-1619
▁Jakob	-1620
▁shaut	-1621
acter	-1622
▁spec	-1623
hool	-1624
▁min	-1625
▁blow	-1626
▁author	-1627
▁Eph	-1628
ighb	-1629
▁armies	-1630
▁taking	-1631
ars	-1632
▁oath	-1633
▁neighb	-1634
ced	-1635
odas	-1636
ganiz	-1637
▁Benj	-1638
▁feet	-1639
ron	-1640
▁add	-1641
▁Noah	-1642
▁brodas	-1643
irl	-1644
▁evry	-1645
▁These	-1646
▁silver	-1647
ike	-1648
▁eight	-1649
▁stones	-1650
raim	-1651
▁boy	-1652
▁half	-1653
▁Hezek	-1654
▁forget	-1655
▁evening	-1656
▁character	-1657
▁Pr	-1658
▁rain	-1659
▁church	-1660
hem	-1661
▁There	-1662
▁proper	-1663
ba	-1664
▁rep	-1665
▁meal	-1666
▁since	-1667
▁seem	-1668
▁flight	-1669
▁baptize	-1670
obol	-1671
▁respons	-1672
▁Benjamin	-1673
ians	-1674
grand	-1675
▁Temple	-1676
▁organiz	-1677
▁burning	-1678
▁22	-1679
▁gover	-1680
Di	-1681
▁Assy	-1682
▁Ev	-1683
▁co	-1684
place	-1685
venant	-1686
ures	-1687
▁gif	-1688
▁vis	-1689
▁named	-1690
▁rulers	-1691
anaan	-1692
▁korn	-1693
▁takes	-1694
▁friends	-1695
▁cap	-1696
▁trobol	-1697
▁faithful	-1698
My	-1699
▁gain	-1700
og	-1701
▁form	-1702
▁broda	-1703
▁cross	-1704
▁Samuel	-1705
▁Jon	-1706
▁exp	-1707
▁opp	-1708
▁Afta	-1709
▁Mount	-1710
▁sidan	-1711
ft	-1712
aria	-1713
▁afta	-1714
▁bell	-1715
▁kare	-1716
▁watch	-1717
▁overcome	-1718
▁important	-1719
ved	-1720
▁23	-1721
▁hide	-1722
▁design	-1723
▁Lu	-1724
▁pos	-1725
▁second	-1726
ian	-1727
▁arr	-1728
shidren	-1729
▁wealth	-1730
Dis	-1731
▁kw	-1732
▁comm	-1733
▁girl	-1734
▁Ba	-1735
avor	-1736
▁Neb	-1737
▁Sab	-1738
▁bit	-1739
▁ensef	-1740
ilead	-1741
▁sek	-1742
▁next	-1743
▁silva	-1744
xed	-1745
ular	-1746
▁melu	-1747
▁shar	-1748
▁Instead	-1749
▁account	-1750
ef	-1751
arch	-1752
▁bow	-1753
crip	-1754
▁River	-1755
▁grace	-1756
edom	-1757
▁inst	-1758
▁test	-1759
▁wind	-1760
▁Which	-1761
▁mountin	-1762
▁bigin	-1763
▁consider	-1764
cript	-1765
▁pride	-1766
▁value	-1767
cts	-1768
▁Gal	-1769
▁glad	-1770
▁em	-1771
▁har	-1772
▁sun	-1773
▁comp	-1774
▁feast	-1775
▁honour	-1776
▁suffer	-1777
▁pleasure	-1778
▁Of	-1779
▁Papa	-1780
▁evri	-1781
astand	-1782
▁belle	-1783
▁correct	-1784
▁request	-1785
▁evriwhere	-1786
ittle	-1787
▁wide	-1788
aty	-1789
ited	-1790
riage	-1791
▁undastand	-1792
how	-1793
▁ak	-1794
▁nite	-1795
▁slave	-1796
▁24	-1797
ched	-1798
▁tre	-1799
▁gate	-1800
▁sabi	-1801
▁little	-1802
▁Assyria	-1803
ourn	-1804
▁authority	-1805
ince	-1806
▁angels	-1807
▁experi	-1808
▁captain	-1809
And	-1810
ions	-1811
▁horn	-1812
▁laws	-1813
▁moved	-1814
▁propaty	-1815
ert	-1816
ashons	-1817
▁mem	-1818
aking	-1819
▁Josef	-1820
▁minist	-1821
uly	-1822
ized	-1823
▁ra	-1824
▁21	-1825
ased	-1826
▁main	-1827
seh	-1828
asseh	-1829
▁hair	-1830
▁ruler	-1831
▁thirty	-1832
▁special	-1833
▁turning	-1834
isha	-1835
essel	-1836
▁seat	-1837
▁grass	-1838
▁bus	-1839
▁sout	-1840
▁vessel	-1841
▁Philist	-1842
▁dra	-1843
▁eas	-1844
▁sell	-1845
▁dream	-1846
▁kount	-1847
▁resting	-1848
▁building	-1849
ied	-1850
iet	-1851
▁farm	-1852
▁prov	-1853
▁anyhow	-1854
▁govern	-1855
▁Manasseh	-1856
▁pol	-1857
▁play	-1858
▁incre	-1859
▁respet	-1860
▁freedom	-1861
▁sorrow	-1862
ical	-1863
▁kountry	-1864
▁families	-1865
▁organization	-1866
.)	-1867
▁doh	-1868
▁shine	-1869
▁third	-1870
ita	-1871
▁goat	-1872
▁poss	-1873
▁Adam	-1874
▁People	-1875
▁comfort	-1876
sp	-1877
▁alive	-1878
▁worry	-1879
If	-1880
odu	-1881
ellow	-1882
▁rock	-1883
▁wound	-1884
▁Brother	-1885
iew	-1886
▁Our	-1887
▁flow	-1888
▁force	-1889
▁works	-1890
▁direct	-1891
orm	-1892
imen	-1893
ilistia	-1894
▁Gilead	-1895
▁clothing	-1896
▁Joab	-1897
▁favor	-1898
▁valley	-1899
▁prophets	-1900
aoh	-1901
ibes	-1902
▁Take	-1903
▁Pharaoh	-1904
ames	-1905
▁rob	-1906
▁Acts	-1907
▁tents	-1908
▁property	-1909
▁May	-1910
▁Beth	-1911
▁hold	-1912
▁share	-1913
▁wimen	-1914
▁Like	-1915
▁mist	-1916
▁relig	-1917
▁story	-1918
▁waters	-1919
▁ind	-1920
▁judg	-1921
▁inter	-1922
▁topic	-1923
ality	-1924
▁aria	-1925
▁offa	-1926
▁longer	-1927
▁remove	-1928
▁Filistia	-1929
▁Han	-1930
▁beh	-1931
▁buy	-1932
ually	-1933
▁Eli	-1934
▁Jeh	-1935
▁gift	-1936
▁lite	-1937
▁effect	-1938
▁lifted	-1939
ism	-1940
imes	-1941
▁Abi	-1942
▁Pipol	-1943
▁position	-1944
ote	-1945
▁Or	-1946
▁pati	-1947
▁parents	-1948
▁receive	-1949
eri	-1950
▁mo	-1951
▁Ham	-1952
doing	-1953
▁Before	-1954
ict	-1955
▁low	-1956
▁conc	-1957
▁pity	-1958
▁whether	-1959
▁ark	-1960
▁lord	-1961
▁later	-1962
air	-1963
oke	-1964
▁True	-1965
▁bitter	-1966
oup	-1967
iron	-1968
▁Asa	-1969
▁Have	-1970
▁crus	-1971
rew	-1972
▁forty	-1973
▁serious	-1974
Wetin	-1975
▁warn	-1976
▁waiting	-1977
▁neighbour	-1978
▁Luke	-1979
▁found	-1980
▁Samaria	-1981
▁Bo	-1982
▁fat	-1983
atever	-1984
▁sevent	-1985
▁yourselves	-1986
erm	-1987
ier	-1988
▁enough	-1989
▁government	-1990
ices	-1991
▁cond	-1992
▁loud	-1993
▁ofis	-1994
▁sorry	-1995
ages	-1996
iour	-1997
ised	-1998
aster	-1999
▁Zion	-2000
▁used	-2001
▁visit	-2002
▁daughters	-2003
ero	-2004
▁hong	-2005
▁Psalm	-2006
▁horse	-2007
▁produ	-2008
▁nashons	-2009
ael	-2010
ank	-2011
men	-2012
▁Ammon	-2013
eth	-2014
▁Phil	-2015
▁chang	-2016
▁ofisas	-2017
err	-2018
asef	-2019
das	-2020
heck	-2021
▁kut	-2022
▁dise	-2023
▁greater	-2024
ON	-2025
▁cub	-2026
ishon	-2027
▁Edom	-2028
▁vine	-2029
▁stret	-2030
▁Elijah	-2031
ches	-2032
▁Gen	-2033
▁view	-2034
▁school	-2035
▁seated	-2036
▁quickly	-2037
▁Bethel	-2038
▁De	-2039
▁art	-2040
▁lim	-2041
▁self	-2042
▁complete	-2043
▁marriage	-2044
oint	-2045
raph	-2046
▁band	-2047
▁iron	-2048
▁most	-2049
▁Jerem	-2050
▁shake	-2051
▁Script	-2052
▁advice	-2053
▁overse	-2054
▁Levites	-2055
▁Philistines	-2056
gg	-2057
▁angry	-2058
▁group	-2059
ipp	-2060
par	-2061
▁del	-2062
▁early	-2063
▁forgi	-2064
sal	-2065
pare	-2066
▁sit	-2067
ha	-2068
▁ben	-2069
▁treat	-2070
▁truly	-2071
ided	-2072
▁Just	-2073
▁Prov	-2074
▁lion	-2075
▁drive	-2076
▁rod	-2077
▁Ahab	-2078
▁easy	-2079
▁mont	-2080
▁weep	-2081
▁record	-2082
▁search	-2083
▁savants	-2084
ruly	-2085
ordin	-2086
▁With	-2087
▁past	-2088
ior	-2089
▁sim	-2090
▁tosh	-2091
▁responsible	-2092
azar	-2093
▁nation	-2094
▁Nor	-2095
icked	-2096
▁beri	-2097
▁lamb	-2098
▁naim	-2099
▁odas	-2100
▁Truly	-2101
▁anyone	-2102
▁weeping	-2103
ax	-2104
▁Baal	-2105
▁west	-2106
▁benef	-2107
▁decisions	-2108
ariah	-2109
▁Mary	-2110
▁real	-2111
▁sick	-2112
ries	-2113
▁plus	-2114
▁soon	-2115
▁difren	-2116
Yu	-2117
work	-2118
▁por	-2119
▁cent	-2120
▁Witnesses	-2121
▁Jo	-2122
▁cour	-2123
▁mark	-2124
▁shut	-2125
▁Pesin	-2126
▁convent	-2127
ONG	-2128
shu	-2129
ating	-2130
▁swod	-2131
▁yong	-2132
▁Jehosh	-2133
fl	-2134
▁Al	-2135
▁Law	-2136
▁SONG	-2137
▁prish	-2138
▁attention	-2139
▁direction	-2140
▁image	-2141
hob	-2142
▁Es	-2143
▁tey	-2144
athan	-2145
attle	-2146
▁wild	-2147
▁porshu	-2148
tr	-2149
aban	-2150
▁fifty	-2151
▁ministry	-2152
▁possible	-2153
ja	-2154
▁adv	-2155
▁Pita	-2156
▁prin	-2157
▁regular	-2158
▁everyone	-2159
avy	-2160
▁Fero	-2161
▁artic	-2162
▁flock	-2163
▁apostles	-2164
lud	-2165
▁ol	-2166
hers	-2167
tern	-2168
▁mus	-2169
▁grief	-2170
▁store	-2171
▁Elisha	-2172
▁putting	-2173
nah	-2174
▁Her	-2175
▁sac	-2176
▁Gent	-2177
asing	-2178
▁Come	-2179
▁fail	-2180
▁business	-2181
ried	-2182
▁mil	-2183
ility	-2184
▁heavy	-2185
▁public	-2186
▁service	-2187
▁strange	-2188
▁Hezekiah	-2189
oday	-2190
ring	-2191
▁goods	-2192
eg	-2193
iol	-2194
▁ill	-2195
▁tif	-2196
ently	-2197
uring	-2198
▁miss	-2199
▁ship	-2200
▁akordin	-2201
▁bed	-2202
▁lin	-2203
▁red	-2204
iving	-2205
▁stra	-2206
agraph	-2207
▁olive	-2208
▁letter	-2209
▁instead	-2210
▁whatever	-2211
▁paragraph	-2212
kel	-2213
▁sur	-2214
offer	-2215
▁perf	-2216
▁Jehoi	-2217
▁parts	-2218
▁profets	-2219
Wen	-2220
reeze	-2221
▁Esau	-2222
▁baptism	-2223
aim	-2224
▁25	-2225
geda	-2226
▁divide	-2227
▁haters	-2228
▁togeda	-2229
▁cop	-2230
arden	-2231
reate	-2232
▁chance	-2233
▁circum	-2234
▁fi	-2235
ards	-2236
▁dust	-2237
▁weak	-2238
▁breeze	-2239
▁myself	-2240
▁His	-2241
▁cru	-2242
▁High	-2243
▁acts	-2244
▁deat	-2245
▁cubits	-2246
For	-2247
time	-2248
▁viol	-2249
▁trees	-2250
▁covered	-2251
pe	-2252
Una	-2253
aced	-2254
▁pill	-2255
▁sort	-2256
▁music	-2257
▁resur	-2258
Now	-2259
ors	-2260
ser	-2261
less	-2262
tend	-2263
true	-2264
▁left	-2265
▁Where	-2266
▁enemy	-2267
wo	-2268
▁mid	-2269
▁Their	-2270
▁listen	-2271
▁Ef	-2272
▁area	-2273
▁kreate	-2274
▁protet	-2275
▁shekel	-2276
▁deceive	-2277
▁heavens	-2278
▁mistake	-2279
▁Sim	-2280
▁less	-2281
▁trut	-2282
▁disease	-2283
▁Say	-2284
▁separ	-2285
▁trans	-2286
▁pot	-2287
salom	-2288
▁meat	-2289
▁refu	-2290
▁tire	-2291
▁tong	-2292
▁weda	-2293
ech	-2294
end	-2295
iting	-2296
▁Will	-2297
▁linen	-2298
▁beasts	-2299
▁fellow	-2300
▁vision	-2301
▁ourselves	-2302
ibut	-2303
▁Zer	-2304
anger	-2305
▁fixed	-2306
▁white	-2307
▁crying	-2308
▁prepare	-2309
▁religion	-2310
app	-2311
zzar	-2312
▁ver	-2313
oboam	-2314
▁explain	-2315
▁working	-2316
othy	-2317
aness	-2318
▁Absalom	-2319
▁talking	-2320
gust	-2321
▁wons	-2322
▁blind	-2323
▁heads	-2324
▁Jeroboam	-2325
▁Bar	-2326
▁Dat	-2327
▁fut	-2328
ially	-2329
▁Gree	-2330
▁city	-2331
▁skin	-2332
▁Today	-2333
▁elder	-2334
▁overt	-2335
▁However	-2336
aus	-2337
▁cup	-2338
▁sinn	-2339
▁future	-2340
▁houses	-2341
▁interest	-2342
▁kovenant	-2343
ket	-2344
ready	-2345
▁surp	-2346
▁walk	-2347
▁Watch	-2348
▁Timothy	-2349
▁arrange	-2350
▁kollect	-2351
▁forgiven	-2352
ily	-2353
key	-2354
▁30	-2355
▁Im	-2356
▁Mi	-2357
▁Zeb	-2358
▁sho	-2359
oples	-2360
ourage	-2361
▁cruel	-2362
▁twelf	-2363
▁around	-2364
▁needed	-2365
▁weight	-2366
▁already	-2367
hew	-2368
urb	-2369
▁pal	-2370
grace	-2371
▁Pass	-2372
▁Tent	-2373
▁step	-2374
▁Hebrew	-2375
▁accept	-2376
▁Ephraim	-2377
▁disgrace	-2378
▁sn	-2379
▁dir	-2380
▁Gibe	-2381
▁branch	-2382
▁peoples	-2383
▁fighting	-2384
▁Ish	-2385
▁rij	-2386
▁Keep	-2387
▁dirty	-2388
▁wicked	-2389
▁vessels	-2390
▁questions	-2391
▁Si	-2392
uben	-2393
▁kwik	-2394
▁speak	-2395
▁disciple	-2396
▁division	-2397
den	-2398
▁Me	-2399
aiah	-2400
elve	-2401
pect	-2402
▁kamp	-2403
▁Every	-2404
▁greet	-2405
▁chiefs	-2406
▁payment	-2407
▁produce	-2408
▁branches	-2409
▁Wor	-2410
▁conf	-2411
▁personal	-2412
▁rijet	-2413
▁twelve	-2414
als	-2415
ble	-2416
iot	-2417
ova	-2418
bers	-2419
eign	-2420
ilee	-2421
ustr	-2422
venty	-2423
▁birds	-2424
▁loose	-2425
▁quiet	-2426
▁concern	-2427
▁meetings	-2428
▁ed	-2429
tory	-2430
ural	-2431
▁det	-2432
▁Shem	-2433
▁kour	-2434
▁puts	-2435
▁vill	-2436
▁touch	-2437
▁Priest	-2438
▁tribes	-2439
▁Az	-2440
ully	-2441
▁journ	-2442
▁palis	-2443
▁surpr	-2444
▁Reuben	-2445
▁memory	-2446
▁prayers	-2447
▁troubled	-2448
hy	-2449
ram	-2450
rum	-2451
imele	-2452
▁James	-2453
▁Pikin	-2454
▁Since	-2455
▁Matthew	-2456
▁convention	-2457
ea	-2458
ues	-2459
▁draw	-2460
▁price	-2461
▁Ele	-2462
▁Evr	-2463
▁spo	-2464
▁journey	-2465
▁patient	-2466
▁straight	-2467
ins	-2468
▁Ma	-2469
lect	-2470
▁tax	-2471
obody	-2472
▁Jeph	-2473
▁pros	-2474
▁raiz	-2475
▁Rehob	-2476
▁appro	-2477
▁demsef	-2478
▁disgust	-2479
▁doorway	-2480
▁certainly	-2481
elt	-2482
▁seventy	-2483
▁mountains	-2484
▁forgiveness	-2485
els	-2486
▁Get	-2487
ering	-2488
▁nort	-2489
▁grave	-2490
▁loved	-2491
▁short	-2492
▁smell	-2493
▁wives	-2494
▁article	-2495
▁stretched	-2496
▁ho	-2497
bath	-2498
ters	-2499
▁Are	-2500
▁Sar	-2501
▁bin	-2502
▁caus	-2503
▁male	-2504
▁Anybody	-2505
vers	-2506
▁New	-2507
cious	-2508
▁doub	-2509
▁perfum	-2510
▁publis	-2511
fet	-2512
▁Doz	-2513
▁sky	-2514
▁opress	-2515
▁Jeremiah	-2516
eal	-2517
ips	-2518
▁Gad	-2519
▁fact	-2520
▁Isaac	-2521
▁brass	-2522
▁Canaan	-2523
▁master	-2524
▁prisoners	-2525
dle	-2526
▁mek	-2527
▁oxen	-2528
▁pour	-2529
▁qual	-2530
▁appre	-2531
▁crown	-2532
▁doors	-2533
▁endure	-2534
▁shange	-2535
▁falling	-2536
▁instrum	-2537
▁village	-2538
▁wildaness	-2539
cip	-2540
hon	-2541
adne	-2542
ject	-2543
▁Mer	-2544
▁Put	-2545
▁includ	-2546
▁kindness	-2547
▁experience	-2548
Wi	-2549
of	-2550
vo	-2551
any	-2552
▁pur	-2553
▁sex	-2554
▁situ	-2555
▁arrow	-2556
▁swear	-2557
aterial	-2558
▁addition	-2559
▁darkness	-2560
▁encourag	-2561
▁Amor	-2562
▁gree	-2563
▁hour	-2564
▁north	-2565
adnezzar	-2566
▁married	-2567
▁Ne	-2568
iday	-2569
▁Jos	-2570
▁Yor	-2571
▁net	-2572
fully	-2573
▁Zech	-2574
▁boat	-2575
▁Greek	-2576
▁verse	-2577
▁course	-2578
▁throne	-2579
▁Sabbath	-2580
▁changed	-2581
▁separate	-2582
▁ma	-2583
▁Sea	-2584
▁Yet	-2585
▁tem	-2586
▁foot	-2587
ternal	-2588
▁burnt	-2589
▁Person	-2590
▁captains	-2591
▁relation	-2592
▁26	-2593
teen	-2594
▁Col	-2595
▁Jez	-2596
▁Ser	-2597
▁Ahaz	-2598
▁told	-2599
ointed	-2600
▁middle	-2601
▁Galilee	-2602
▁crushed	-2603
▁forward	-2604
▁keeping	-2605
),	-2606
ape	-2607
▁Dey	-2608
▁ded	-2609
▁copy	-2610
▁fish	-2611
▁priv	-2612
▁Kanaan	-2613
?’	-2614
ump	-2615
▁Pl	-2616
▁san	-2617
▁tie	-2618
▁tank	-2619
▁week	-2620
▁Hebron	-2621
▁assign	-2622
Oga	-2623
arm	-2624
▁32	-2625
thah	-2626
orrow	-2627
▁means	-2628
▁invite	-2629
▁appreci	-2630
▁cutting	-2631
▁ourself	-2632
▁Jephthah	-2633
▁material	-2634
▁everybody	-2635
▁Sir	-2636
▁bird	-2637
▁home	-2638
▁dress	-2639
▁rules	-2640
▁signs	-2641
▁marked	-2642
▁street	-2643
▁trowey	-2644
▁eternal	-2645
▁overseer	-2646
▁worshipp	-2647
orah	-2648
▁polit	-2649
▁helped	-2650
hol	-2651
ify	-2652
ten	-2653
▁Ap	-2654
otas	-2655
ouse	-2656
▁Eve	-2657
▁ram	-2658
cience	-2659
▁Nobody	-2660
▁curtain	-2661
▁protect	-2662
wey	-2663
▁27	-2664
▁nid	-2665
▁advise	-2666
▁danger	-2667
▁disgusting	-2668
wa	-2669
▁Day	-2670
itate	-2671
▁feeb	-2672
▁wake	-2673
▁bones	-2674
▁pract	-2675
▁unasef	-2676
▁causing	-2677
▁car	-2678
▁mir	-2679
ilate	-2680
▁encourage	-2681
bs	-2682
▁33	-2683
cess	-2684
five	-2685
ined	-2686
onze	-2687
▁Uzz	-2688
aphat	-2689
▁Jehu	-2690
▁guid	-2691
▁note	-2692
▁bronze	-2693
▁Another	-2694
▁Ram	-2695
▁box	-2696
▁vois	-2697
▁Isaak	-2698
▁creat	-2699
▁sharp	-2700
▁spoil	-2701
▁flower	-2702
▁serving	-2703
▁Rehoboam	-2704
edar	-2705
▁loy	-2706
unity	-2707
▁limit	-2708
▁names	-2709
▁Isaiah	-2710
▁breast	-2711
▁princip	-2712
▁shaking	-2713
▁baptized	-2714
▁sy	-2715
ains	-2716
edek	-2717
hose	-2718
▁Dia	-2719
▁laf	-2720
▁loc	-2721
▁Simon	-2722
▁kloud	-2723
▁delight	-2724
▁recorded	-2725
▁thoughts	-2726
▁Zechariah	-2727
▁Scriptures	-2728
▁wrongdoing	-2729
fic	-2730
abol	-2731
akes	-2732
vest	-2733
▁avo	-2734
▁wel	-2735
allen	-2736
▁Asher	-2737
▁invol	-2738
▁feeble	-2739
▁Eleazar	-2740
▁Pharise	-2741
agog	-2742
inth	-2743
acher	-2744
▁begin	-2745
▁lives	-2746
▁breath	-2747
▁kommit	-2748
▁loving	-2749
▁circuit	-2750
ows	-2751
▁Leb	-2752
▁Mid	-2753
ideon	-2754
▁cord	-2755
▁dear	-2756
▁sold	-2757
▁Those	-2758
▁beaut	-2759
▁wrote	-2760
▁images	-2761
▁sometimes	-2762
be	-2763
cus	-2764
eye	-2765
▁Un	-2766
just	-2767
roll	-2768
then	-2769
▁201	-2770
anging	-2771
▁Gideon	-2772
▁affect	-2773
▁refuge	-2774
▁korrect	-2775
▁thinking	-2776
line	-2777
ments	-2778
▁wayo	-2779
▁desert	-2780
car	-2781
ele	-2782
sue	-2783
tle	-2784
▁arms	-2785
▁coun	-2786
▁lips	-2787
▁yeye	-2788
▁becom	-2789
▁oppos	-2790
▁Efraim	-2791
▁effort	-2792
▁imself	-2793
▁getting	-2794
▁reading	-2795
So	-2796
ari	-2797
nashon	-2798
▁Apost	-2799
▁Romans	-2800
▁attend	-2801
▁cattle	-2802
▁donkey	-2803
▁sekond	-2804
▁generation	-2805
kay	-2806
ziz	-2807
most	-2808
alaam	-2809
▁Sabat	-2810
▁stars	-2811
▁yours	-2812
ecially	-2813
▁Profet	-2814
▁tongue	-2815
▁writing	-2816
▁vexnashon	-2817
▁Jehoshaphat	-2818
!’	-2819
ped	-2820
▁esp	-2821
▁dece	-2822
▁leta	-2823
▁Zedek	-2824
▁diziz	-2825
▁Midian	-2826
▁harvest	-2827
▁contribut	-2828
▁Ob	-2829
iful	-2830
ivid	-2831
▁Ash	-2832
▁fig	-2833
▁scr	-2834
erved	-2835
tower	-2836
idence	-2837
▁avoid	-2838
▁horns	-2839
▁kause	-2840
▁lands	-2841
▁loyal	-2842
▁south	-2843
▁hongry	-2844
▁result	-2845
▁theirself	-2846
Den	-2847
▁29	-2848
itud	-2849
ressed	-2850
▁Herod	-2851
▁armed	-2852
offering	-2853
▁command	-2854
▁ordered	-2855
▁kountries	-2856
▁met	-2857
▁mod	-2858
▁Most	-2859
▁neck	-2860
▁Balaam	-2861
▁Pilate	-2862
▁appear	-2863
▁leader	-2864
▁challen	-2865
).	-2866
ics	-2867
▁34	-2868
▁Sy	-2869
aker	-2870
ared	-2871
▁Song	-2872
▁began	-2873
▁point	-2874
▁yorsef	-2875
▁mission	-2876
▁walking	-2877
▁wonderful	-2878
▁Watchtower	-2879
▁strengthen	-2880
▁Ko	-2881
raiz	-2882
▁195	-2883
▁Har	-2884
▁Nab	-2885
ident	-2886
▁tear	-2887
▁Leban	-2888
▁steps	-2889
▁walls	-2890
▁discus	-2891
▁benefit	-2892
▁desires	-2893
▁prosper	-2894
▁seventh	-2895
▁experien	-2896
▁blessings	-2897
▁sacrifice	-2898
▁especially	-2899
▁31	-2900
rate	-2901
▁Box	-2902
▁wid	-2903
▁cult	-2904
▁drop	-2905
▁fate	-2906
▁cloud	-2907
▁spear	-2908
▁thank	-2909
▁seeing	-2910
▁incense	-2911
▁Ez	-2912
▁Rem	-2913
▁imm	-2914
▁Cons	-2915
▁heal	-2916
▁trit	-2917
▁asked	-2918
▁increased	-2919
vil	-2920
eans	-2921
ific	-2922
▁Mik	-2923
▁mot	-2924
aviour	-2925
▁humans	-2926
▁nashon	-2927
▁Lebanon	-2928
▁strenjas	-2929
▁happiness	-2930
▁occ	-2931
▁Hall	-2932
▁coll	-2933
▁deal	-2934
▁Abram	-2935
▁check	-2936
▁korna	-2937
▁stream	-2938
ako	-2939
osp	-2940
son	-2941
two	-2942
▁arg	-2943
▁sop	-2944
▁pull	-2945
▁Siria	-2946
▁keeps	-2947
▁deceit	-2948
▁diffic	-2949
▁counsel	-2950
▁sopraiz	-2951
▁condition	-2952
uz	-2953
man	-2954
adab	-2955
tely	-2956
▁med	-2957
▁sav	-2958
▁hole	-2959
▁robe	-2960
▁wish	-2961
ividual	-2962
▁fields	-2963
▁circumc	-2964
▁driving	-2965
▁offered	-2966
▁pillars	-2967
▁Hezekaya	-2968
▁maintain	-2969
irg	-2970
ool	-2971
▁Not	-2972
▁cor	-2973
▁robes	-2974
▁action	-2975
▁judged	-2976
▁sinners	-2977
▁completely	-2978
ances	-2979
▁mold	-2980
▁Somet	-2981
▁kontr	-2982
▁judging	-2983
▁someone	-2984
▁Kovenant	-2985
▁pleasing	-2986
cy	-2987
kw	-2988
▁40	-2989
akim	-2990
▁ret	-2991
▁rip	-2992
doers	-2993
▁Ishm	-2994
▁rush	-2995
▁trap	-2996
itings	-2997
ometin	-2998
▁evriday	-2999
▁saviour	-3000
▁shoulder	-3001
iri	-3002
born	-3003
▁Dam	-3004
▁ash	-3005
▁bod	-3006
▁sub	-3007
ative	-3008
lands	-3009
▁Stud	-3010
spring	-3011
▁needs	-3012
▁horses	-3013
▁months	-3014
▁vishon	-3015
▁Abimele	-3016
io	-3017
▁Mem	-3018
▁stor	-3019
▁Abner	-3020
▁often	-3021
▁bodies	-3022
▁moving	-3023
▁spread	-3024
for	-3025
▁vow	-3026
aniah	-3027
▁mighty	-3028
▁transl	-3029
▁Consider	-3030
▁individual	-3031
ury	-3032
alek	-3033
otey	-3034
▁191	-3035
▁Nah	-3036
tinue	-3037
▁Check	-3038
▁mourn	-3039
▁determ	-3040
▁office	-3041
▁sistas	-3042
▁Jonatan	-3043
▁sometin	-3044
▁spirits	-3045
▁kontinue	-3046
▁difficult	-3047
▁Israelites	-3048
▁conscience	-3049
▁resurrection	-3050
But	-3051
isa	-3052
▁Ca	-3053
▁Sc	-3054
▁Ty	-3055
idon	-3056
▁Sin	-3057
itude	-3058
▁defe	-3059
riages	-3060
▁expect	-3061
▁however	-3062
▁mention	-3063
▁violent	-3064
▁wonders	-3065
▁beautiful	-3066
▁encouragement	-3067
not	-3068
oyal	-3069
▁Far	-3070
▁gar	-3071
cross	-3072
▁once	-3073
▁stru	-3074
▁sotey	-3075
▁Gentile	-3076
▁Ishmael	-3077
▁kontrol	-3078
▁sickness	-3079
▁discipline	-3080
Dem	-3081
▁age	-3082
▁bag	-3083
▁err	-3084
ashan	-3085
▁Caes	-3086
▁clot	-3087
▁wand	-3088
▁Gover	-3089
▁Bashan	-3090
▁across	-3091
▁profit	-3092
▁regard	-3093
▁Jonathan	-3094
▁qualities	-3095
▁spiritually	-3096
cl	-3097
oc	-3098
ail	-3099
amm	-3100
uku	-3101
val	-3102
▁35	-3103
ilar	-3104
iles	-3105
mall	-3106
▁felt	-3107
▁mash	-3108
▁okay	-3109
▁Sarah	-3110
▁World	-3111
▁honga	-3112
▁Amalek	-3113
▁garden	-3114
▁Philipp	-3115
▁collect	-3116
ny	-3117
awo	-3118
ens	-3119
▁Est	-3120
▁Mord	-3121
▁kway	-3122
▁count	-3123
▁demon	-3124
▁honey	-3125
▁necess	-3126
▁courage	-3127
▁learned	-3128
ired	-3129
ples	-3130
ining	-3131
▁Mark	-3132
▁fast	-3133
▁Still	-3134
▁Think	-3135
▁boast	-3136
▁party	-3137
▁seems	-3138
▁sista	-3139
▁stick	-3140
▁during	-3141
▁return	-3142
▁examples	-3143
▁circumcision	-3144
oz	-3145
gal	-3146
rel	-3147
oked	-3148
▁Had	-3149
▁Haz	-3150
▁Lot	-3151
▁Good	-3152
▁orda	-3153
▁surv	-3154
▁Later	-3155
▁Other	-3156
▁SONGS	-3157
▁Shime	-3158
▁cedar	-3159
▁hills	-3160
▁songs	-3161
▁space	-3162
▁table	-3163
▁tenth	-3164
▁trial	-3165
aitious	-3166
▁ashawo	-3167
▁designs	-3168
fr	-3169
pes	-3170
roy	-3171
▁dam	-3172
▁ova	-3173
▁fair	-3174
▁Damas	-3175
▁doubt	-3176
eserved	-3177
▁belief	-3178
▁common	-3179
▁Corinth	-3180
▁lifting	-3181
▁line	-3182
▁nine	-3183
▁sain	-3184
▁Laban	-3185
▁shariot	-3186
▁numbered	-3187
▁surprise	-3188
▁situation	-3189
emb	-3190
iram	-3191
oram	-3192
rest	-3193
umpet	-3194
▁Rome	-3195
▁sees	-3196
▁Taban	-3197
▁close	-3198
▁kwayet	-3199
▁trumpet	-3200
▁willing	-3201
▁Tabanako	-3202
▁instruments	-3203
tn	-3204
▁Tr	-3205
▁Wr	-3206
ling	-3207
▁194	-3208
▁Hel	-3209
▁Naz	-3210
▁esc	-3211
orial	-3212
velop	-3213
▁gets	-3214
ealous	-3215
▁Zebul	-3216
▁obser	-3217
▁seize	-3218
▁Hannah	-3219
▁privile	-3220
▁judgement	-3221
Si	-3222
ali	-3223
zer	-3224
uild	-3225
▁Per	-3226
▁dep	-3227
ansom	-3228
▁Body	-3229
▁Tyre	-3230
▁trad	-3231
▁Chron	-3232
▁While	-3233
▁snake	-3234
▁worse	-3235
▁opport	-3236
▁settle	-3237
▁history	-3238
▁jealous	-3239
▁problems	-3240
▁Pharisees	-3241
▁publishers	-3242
yr	-3243
lah	-3244
nor	-3245
▁37	-3246
adok	-3247
▁Gil	-3248
▁Hag	-3249
▁royal	-3250
▁tight	-3251
▁using	-3252
▁School	-3253
▁imitate	-3254
▁provide	-3255
▁Governing	-3256
▁everywhere	-3257
Naw	-3258
▁Ex	-3259
esty	-3260
▁Did	-3261
▁Mah	-3262
David	-3263
▁Mesh	-3264
▁moon	-3265
▁Zadok	-3266
▁minds	-3267
▁sturb	-3268
▁ruling	-3269
▁feelings	-3270
▁Sometimes	-3271
▁offspring	-3272
oci	-3273
aves	-3274
ital	-3275
▁Jab	-3276
▁Par	-3277
▁bar	-3278
▁esk	-3279
▁few	-3280
▁ide	-3281
adise	-3282
iring	-3283
ished	-3284
▁Life	-3285
▁milk	-3286
▁kourt	-3287
▁sixty	-3288
▁ransom	-3289
▁saints	-3290
▁greatly	-3291
▁reflect	-3292
▁Memorial	-3293
edi	-3294
uct	-3295
hest	-3296
▁Ara	-3297
▁Mart	-3298
▁mine	-3299
▁opin	-3300
▁pict	-3301
▁virg	-3302
▁black	-3303
▁sport	-3304
▁Samson	-3305
▁associ	-3306
▁develop	-3307
▁pleased	-3308
▁shekels	-3309
▁missionary	-3310
▁principles	-3311
▁undeserved	-3312
non	-3313
doer	-3314
▁Eth	-3315
▁Miz	-3316
▁Aram	-3317
▁activ	-3318
▁imper	-3319
▁repent	-3320
▁undergo	-3321
aps	-3322
kom	-3323
now	-3324
rim	-3325
▁Ak	-3326
ekah	-3327
▁Med	-3328
▁eag	-3329
araya	-3330
lehem	-3331
▁sand	-3332
▁taya	-3333
▁ordin	-3334
▁press	-3335
▁Farise	-3336
▁handle	-3337
▁behaviour	-3338
eph	-3339
amed	-3340
odom	-3341
▁Ind	-3342
▁kne	-3343
gress	-3344
▁Deut	-3345
▁Ezek	-3346
▁heat	-3347
▁knew	-3348
▁lamp	-3349
urther	-3350
▁smoke	-3351
ication	-3352
vereign	-3353
▁cannot	-3354
▁strugg	-3355
▁Farisee	-3356
▁discuss	-3357
▁flowing	-3358
▁responsib	-3359
As	-3360
▁pp	-3361
▁fac	-3362
▁hig	-3363
▁rele	-3364
▁seek	-3365
▁stat	-3366
▁eldas	-3367
▁fully	-3368
▁Gibeah	-3369
▁gather	-3370
▁wanted	-3371
▁Gentiles	-3372
▁Remember	-3373
▁Writings	-3374
▁raitious	-3375
Why	-3376
ani	-3377
eleb	-3378
form	-3379
haps	-3380
▁tast	-3381
▁Nebuk	-3382
▁Sodom	-3383
▁celeb	-3384
▁eskape	-3385
▁illustr	-3386
▁wandering	-3387
ug	-3388
law	-3389
tre	-3390
▁anx	-3391
▁blue	-3392
▁earl	-3393
▁joined	-3394
▁survive	-3395
▁approval	-3396
▁Nebukadnezzar	-3397
bon	-3398
emn	-3399
afat	-3400
oshe	-3401
▁200	-3402
▁Rus	-3403
▁sef	-3404
imeon	-3405
▁Each	-3406
▁hosp	-3407
▁Roman	-3408
▁spend	-3409
▁unity	-3410
▁Nebuch	-3411
▁Simeon	-3412
▁grapes	-3413
▁picture	-3414
▁covering	-3415
▁crushing	-3416
▁Egyptians	-3417
▁generations	-3418
bah	-3419
ulf	-3420
▁Ge	-3421
abas	-3422
eman	-3423
sept	-3424
▁Ant	-3425
▁Bal	-3426
▁yuz	-3427
▁edge	-3428
▁soja	-3429
▁sugg	-3430
▁terr	-3431
ording	-3432
▁Haman	-3433
▁apply	-3434
▁asept	-3435
▁likely	-3436
▁sekons	-3437
▁Zebulun	-3438
▁destroy	-3439
▁express	-3440
▁sending	-3441
▁anywhere	-3442
▁ordinary	-3443
Af	-3444
pa	-3445
aged	-3446
anah	-3447
ilas	-3448
▁Can	-3449
▁Jas	-3450
▁equ	-3451
▁fly	-3452
atter	-3453
teent	-3454
▁lost	-3455
▁stik	-3456
rolled	-3457
▁alone	-3458
▁sinner	-3459
▁compass	-3460
▁conduct	-3461
▁opening	-3462
▁perfume	-3463
▁shining	-3464
▁workers	-3465
▁conscious	-3466
▁worshippers	-3467
anan	-3468
iled	-3469
umor	-3470
▁Ken	-3471
▁Rev	-3472
▁hot	-3473
▁sen	-3474
▁Boaz	-3475
▁Happ	-3476
▁beat	-3477
resent	-3478
▁House	-3479
▁error	-3480
▁mysef	-3481
▁messen	-3482
▁toward	-3483
▁soldier	-3484
aiz	-3485
era	-3486
elah	-3487
have	-3488
heba	-3489
kind	-3490
▁Ged	-3491
▁Mic	-3492
▁ftn	-3493
▁yet	-3494
aving	-3495
world	-3496
▁loss	-3497
▁root	-3498
▁twist	-3499
▁running	-3500
▁Evribody	-3501
▁Jehoiada	-3502
▁komplain	-3503
▁prisoner	-3504
▁necessary	-3505
▁underworld	-3506
amar	-3507
stem	-3508
▁gent	-3509
▁infl	-3510
▁pure	-3511
▁shep	-3512
▁Great	-3513
▁faces	-3514
▁mirak	-3515
▁Josiah	-3516
▁fourth	-3517
▁seemed	-3518
▁washed	-3519
▁garment	-3520
▁attitude	-3521
▁kingdoms	-3522
▁mountins	-3523
▁overtake	-3524
▁sounding	-3525
▁directions	-3526
mit	-3527
oor	-3528
kwik	-3529
tree	-3530
wers	-3531
▁dil	-3532
▁squ	-3533
▁Chal	-3534
▁Thus	-3535
▁fulf	-3536
garden	-3537
▁accom	-3538
▁heavenly	-3539
▁answering	-3540
Man	-3541
cut	-3542
▁..	-3543
▁45	-3544
come	-3545
▁...	-3546
▁Jah	-3547
▁Mal	-3548
▁lau	-3549
▁fake	-3550
▁mass	-3551
▁warm	-3552
atives	-3553
▁disob	-3554
▁older	-3555
▁owner	-3556
▁Shimei	-3557
▁Though	-3558
▁system	-3559
▁helping	-3560
▁numbers	-3561
▁searching	-3562
▁sekonsaiz	-3563
▁friendship	-3564
▁relationship	-3565
ss	-3566
bol	-3567
cing	-3568
ises	-3569
▁Jeb	-3570
▁Koh	-3571
▁Love	-3572
▁Pers	-3573
▁dota	-3574
▁load	-3575
▁tall	-3576
▁wing	-3577
▁Judas	-3578
▁bands	-3579
▁dotas	-3580
▁exerc	-3581
▁rooms	-3582
▁almost	-3583
▁freely	-3584
▁remainin	-3585
ila	-3586
use	-3587
▁Eu	-3588
▁Eng	-3589
▁dog	-3590
▁eph	-3591
ences	-3592
▁Gers	-3593
though	-3594
urance	-3595
▁blows	-3596
▁Passover	-3597
▁opposite	-3598
▁Scriptural	-3599
▁compassion	-3600
iko	-3601
och	-3602
que	-3603
ued	-3604
ives	-3605
more	-3606
▁gre	-3607
udden	-3608
▁Jebus	-3609
▁Jesse	-3610
ulation	-3611
▁offisa	-3612
▁matters	-3613
▁sturbon	-3614
▁politics	-3615
▁secretly	-3616
▁celebrate	-3617
eed	-3618
pty	-3619
▁ur	-3620
empt	-3621
nder	-3622
oses	-3623
phes	-3624
▁kar	-3625
▁nat	-3626
oured	-3627
umoro	-3628
▁conv	-3629
▁nois	-3630
▁ride	-3631
▁roll	-3632
▁wool	-3633
▁basin	-3634
▁cries	-3635
▁empty	-3636
▁influ	-3637
▁Chalda	-3638
▁Gilgal	-3639
▁acting	-3640
▁placed	-3641
▁remind	-3642
▁square	-3643
▁century	-3644
▁anointed	-3645
▁resurrect	-3646
iop	-3647
rop	-3648
▁da	-3649
ants	-3650
resh	-3651
▁sat	-3652
▁base	-3653
▁kond	-3654
▁sele	-3655
▁1,000	-3656
▁Joash	-3657
▁Korah	-3658
▁Sinai	-3659
▁mixed	-3660
▁plate	-3661
▁tabol	-3662
servant	-3663
▁guided	-3664
▁spices	-3665
▁Apostle	-3666
▁clothed	-3667
▁opinion	-3668
▁increase	-3669
▁training	-3670
▁individuals	-3671
Is	-3672
add	-3673
outh	-3674
▁Zab	-3675
▁deb	-3676
ified	-3677
small	-3678
stand	-3679
▁Abeg	-3680
▁kiss	-3681
▁trib	-3682
▁bases	-3683
▁inner	-3684
▁Ethiop	-3685
▁Gibeon	-3686
▁altars	-3687
▁bihave	-3688
▁judges	-3689
▁clearly	-3690
▁fulfill	-3691
▁progress	-3692
▁Jehoshafat	-3693
▁congregations	-3694
Nor	-3695
ilk	-3696
iney	-3697
wise	-3698
▁Wey	-3699
▁dig	-3700
▁sad	-3701
embly	-3702
▁Kiri	-3703
▁bord	-3704
▁case	-3705
▁chap	-3706
▁sides	-3707
▁viney	-3708
▁Caesar	-3709
▁Nathan	-3710
▁worked	-3711
▁yuzles	-3712
▁Passova	-3713
vereignty	-3714
▁circumst	-3715
▁desiring	-3716
▁assignment	-3717
▁experienced	-3718
▁sovereignty	-3719
HE	-3720
The	-3721
irm	-3722
down	-3723
▁Com	-3724
▁Jed	-3725
▁Lib	-3726
▁War	-3727
▁dan	-3728
▁dew	-3729
▁gov	-3730
▁pak	-3731
▁unk	-3732
▁Such	-3733
▁hook	-3734
▁mill	-3735
▁yoke	-3736
▁Devil	-3737
▁based	-3738
▁goats	-3739
▁sofri	-3740
▁wings	-3741
▁arrang	-3742
▁flocks	-3743
▁plants	-3744
▁profes	-3745
▁sudden	-3746
▁foreign	-3747
▁mentioned	-3748
▁regularly	-3749
Any	-3750
noc	-3751
ric	-3752
Afta	-3753
aleb	-3754
iter	-3755
▁Rut	-3756
▁San	-3757
▁maj	-3758
nagog	-3759
▁Jesh	-3760
▁norm	-3761
nocent	-3762
▁Balak	-3763
▁descr	-3764
▁forces	-3765
▁senior	-3766
▁served	-3767
▁chapter	-3768
▁innocent	-3769
▁received	-3770
ats	-3771
eli	-3772
hold	-3773
oted	-3774
▁rib	-3775
▁tom	-3776
▁yes	-3777
anaya	-3778
▁Amaz	-3779
▁Lamb	-3780
▁Leah	-3781
▁Shec	-3782
▁Shil	-3783
▁bush	-3784
▁fing	-3785
▁hang	-3786
▁grape	-3787
▁metal	-3788
▁basket	-3789
▁defend	-3790
▁growth	-3791
▁territ	-3792
▁trials	-3793
▁anytime	-3794
▁feeling	-3795
▁whoever	-3796
▁Students	-3797
▁involved	-3798
▁overcame	-3799
▁pioneers	-3800
▁imperfect	-3801
▁represent	-3802
▁contribute	-3803
▁ponishment	-3804
▁circumstances	-3805
uc	-3806
acle	-3807
amel	-3808
▁Hor	-3809
▁air	-3810
▁hol	-3811
▁key	-3812
itive	-3813
▁Mess	-3814
▁bent	-3815
ushing	-3816
▁Abish	-3817
▁proud	-3818
▁sends	-3819
▁thief	-3820
country	-3821
▁Martha	-3822
▁called	-3823
▁prince	-3824
▁undert	-3825
▁scatter	-3826
carriages	-3827
▁thousands	-3828
▁appreciation	-3829
nes	-3830
▁Up	-3831
▁el	-3832
pite	-3833
▁Ecc	-3834
▁Rac	-3835
▁hur	-3836
▁tal	-3837
ately	-3838
ching	-3839
trees	-3840
▁Adon	-3841
▁Ezra	-3842
▁leaf	-3843
▁rope	-3844
▁unch	-3845
Israel	-3846
▁local	-3847
▁taste	-3848
▁shamed	-3849
▁simple	-3850
▁touching	-3851
▁countries	-3852
ene	-3853
gaz	-3854
imb	-3855
isf	-3856
ocr	-3857
▁Ai	-3858
ases	-3859
▁pie	-3860
arted	-3861
cient	-3862
ising	-3863
tyard	-3864
▁camp	-3865
▁drag	-3866
▁idea	-3867
▁Judea	-3868
▁ended	-3869
▁prize	-3870
▁Merari	-3871
▁arrest	-3872
▁health	-3873
▁ripair	-3874
▁sekret	-3875
▁virgin	-3876
velation	-3877
▁passion	-3878
▁similar	-3879
▁unklean	-3880
offerings	-3881
▁paradise	-3882
▁following	-3883
▁kourtyard	-3884
▁practical	-3885
sk	-3886
kem	-3887
oon	-3888
tan	-3889
▁Ag	-3890
▁Ur	-3891
gram	-3892
▁Iss	-3893
▁ele	-3894
▁hop	-3895
▁phy	-3896
ullam	-3897
▁kase	-3898
▁lock	-3899
▁Arama	-3900
▁First	-3901
▁girls	-3902
▁tempt	-3903
▁widow	-3904
▁Rachel	-3905
▁winged	-3906
▁disobey	-3907
▁disturb	-3908
▁efforts	-3909
▁perfect	-3910
▁prisonas	-3911
▁opportunity	-3912
▁responsibility	-3913
yp	-3914
asta	-3915
ests	-3916
▁env	-3917
ached	-3918
round	-3919
▁Does	-3920
▁More	-3921
▁bone	-3922
▁phys	-3923
▁yist	-3924
asting	-3925
▁const	-3926
▁sorts	-3927
▁chains	-3928
▁cultiv	-3929
▁escept	-3930
▁normal	-3931
▁satisf	-3932
▁attempt	-3933
▁becomes	-3934
▁diliver	-3935
▁keepers	-3936
▁respond	-3937
▁younger	-3938
▁neighbor	-3939
▁troubles	-3940
▁overseers	-3941
▁relations	-3942
▁personality	-3943
No	-3944
za	-3945
ane	-3946
nda	-3947
▁ap	-3948
Then	-3949
atic	-3950
ides	-3951
▁col	-3952
▁sol	-3953
alaya	-3954
eshon	-3955
▁Hesh	-3956
▁Mich	-3957
▁Seir	-3958
▁konf	-3959
▁rods	-3960
iktory	-3961
▁along	-3962
▁resul	-3963
▁rings	-3964
▁forced	-3965
▁ground	-3966
▁actions	-3967
▁mankind	-3968
▁release	-3969
▁strenja	-3970
ontrolled	-3971
▁Zedekiah	-3972
▁tomorrow	-3973
Ab	-3974
adad	-3975
ilah	-3976
▁Awa	-3977
▁Kad	-3978
▁cou	-3979
▁ins	-3980
▁reb	-3981
andon	-3982
▁Ruth	-3983
▁agree	-3984
▁green	-3985
fection	-3986
▁behave	-3987
▁lights	-3988
▁showed	-3989
▁Hebrews	-3990
▁Heshbon	-3991
▁earlier	-3992
▁ribuild	-3993
▁scribes	-3994
▁Although	-3995
Yes	-3996
ered	-3997
irts	-3998
lish	-3999
ping	-4000
vail	-4001
▁Gom	-4002
▁pit	-4003
icate	-4004
▁died	-4005
▁fill	-4006
▁teac	-4007
▁Place	-4008
▁South	-4009
▁focus	-4010
▁goals	-4011
▁helps	-4012
▁offic	-4013
▁perse	-4014
▁thorn	-4015
▁thund	-4016
estions	-4017
▁Jeriko	-4018
▁Persia	-4019
▁Rather	-4020
▁couple	-4021
▁hospit	-4022
▁keeper	-4023
▁nearly	-4024
▁temper	-4025
▁welkom	-4026
▁members	-4027
▁started	-4028
▁surround	-4029
▁watching	-4030
▁determined	-4031
▁Corinthians	-4032
▁tribulation	-4033
▁uncontrolled	-4034
▁Des	-4035
▁Zek	-4036
▁bot	-4037
▁hun	-4038
▁luz	-4039
aliah	-4040
▁Obed	-4041
▁insp	-4042
▁soft	-4043
▁thus	-4044
▁conne	-4045
▁cords	-4046
▁displ	-4047
▁klose	-4048
▁laugh	-4049
hearted	-4050
▁Master	-4051
▁harmon	-4052
▁meetin	-4053
▁Messiah	-4054
▁abandon	-4055
▁guiding	-4056
▁stopped	-4057
▁student	-4058
▁viktory	-4059
▁perfumes	-4060
▁Jehoiakim	-4061
▁creatures	-4062
▁connection	-4063
▁increasing	-4064
ni	-4065
alt	-4066
don	-4067
iph	-4068
pah	-4069
ute	-4070
icho	-4071
▁Don	-4072
▁Two	-4073
▁mix	-4074
maker	-4075
▁Sheb	-4076
▁dove	-4077
▁goal	-4078
▁hors	-4079
▁ring	-4080
▁About	-4081
▁Jonah	-4082
▁borda	-4083
▁event	-4084
▁issue	-4085
▁magaz	-4086
▁miles	-4087
▁noise	-4088
▁worth	-4089
ilities	-4090
▁Shiloh	-4091
▁fruits	-4092
▁limits	-4093
▁oldest	-4094
▁pursue	-4095
▁tumoro	-4096
▁Evritin	-4097
▁Jericho	-4098
▁Shechem	-4099
▁teacher	-4100
ellowship	-4101
▁Zekaraya	-4102
▁becoming	-4103
▁drinking	-4104
▁learning	-4105
▁vineyard	-4106
▁confidence	-4107
▁correction	-4108
esi	-4109
▁Ki	-4110
abel	-4111
ield	-4112
▁Ach	-4113
▁Esh	-4114
▁Rab	-4115
▁Reb	-4116
▁Rul	-4117
▁ice	-4118
▁nin	-4119
▁rub	-4120
plete	-4121
▁Ahit	-4122
▁Evil	-4123
▁disf	-4124
▁doct	-4125
▁guil	-4126
▁mesi	-4127
▁nail	-4128
▁succ	-4129
riment	-4130
▁Sheba	-4131
▁Silas	-4132
▁wotas	-4133
▁United	-4134
▁anxiet	-4135
▁aspect	-4136
▁gentle	-4137
▁higher	-4138
▁lovers	-4139
▁pillar	-4140
▁rather	-4141
▁Ezekiel	-4142
▁kondemn	-4143
▁meaning	-4144
▁wotaside	-4145
▁Abimelech	-4146
▁statement	-4147
▁Chaldaeans	-4148
▁generashon	-4149
▁disfellowship	-4150
hu	-4151
bad	-4152
ety	-4153
nam	-4154
▁ps	-4155
wood	-4156
▁Mak	-4157
▁bur	-4158
▁exc	-4159
▁wif	-4160
agine	-4161
ained	-4162
arrel	-4163
otion	-4164
ously	-4165
worel	-4166
▁bele	-4167
▁debt	-4168
▁reve	-4169
▁sore	-4170
avened	-4171
▁Ephes	-4172
▁Sihon	-4173
▁argum	-4174
▁asses	-4175
▁Abijah	-4176
▁assist	-4177
▁kworel	-4178
▁pieces	-4179
▁Rebekah	-4180
▁Zedekaya	-4181
▁precious	-4182
▁profesai	-4183
▁sleeping	-4184
▁standards	-4185
▁territory	-4186
▁activities	-4187
▁unchanging	-4188
ico	-4189
mer	-4190
ply	-4191
aith	-4192
aked	-4193
ekai	-4194
Selah	-4195
verbs	-4196
▁Abel	-4197
▁Beer	-4198
▁Germ	-4199
▁appl	-4200
▁wave	-4201
▁Happy	-4202
▁lambs	-4203
▁storm	-4204
▁wifes	-4205
▁centre	-4206
▁expert	-4207
▁taught	-4208
▁wasted	-4209
▁kweshon	-4210
▁planted	-4211
▁Jeremaya	-4212
▁greatest	-4213
▁selection	-4214
▁wikedness	-4215
omi	-4216
▁39	-4217
aius	-4218
anda	-4219
apht	-4220
itus	-4221
izin	-4222
▁Pra	-4223
▁Red	-4224
▁dev	-4225
ivers	-4226
▁Eden	-4227
▁Hilk	-4228
▁Rock	-4229
▁Tell	-4230
▁legs	-4231
▁roof	-4232
places	-4233
▁Gaius	-4234
▁cakes	-4235
▁hater	-4236
▁psalm	-4237
▁shade	-4238
▁shief	-4239
▁weeks	-4240
▁honbol	-4241
▁beleful	-4242
▁perhaps	-4243
▁agriment	-4244
▁wherever	-4245
▁religious	-4246
▁surprised	-4247
▁Nebuchadnezzar	-4248
Who	-4249
lie	-4250
zin	-4251
ened	-4252
ging	-4253
ival	-4254
sell	-4255
▁tit	-4256
▁Book	-4257
▁cred	-4258
▁palm	-4259
▁post	-4260
▁slow	-4261
▁webs	-4262
▁eagle	-4263
▁immor	-4264
▁occas	-4265
▁pound	-4266
▁tower	-4267
▁demons	-4268
▁honest	-4269
▁member	-4270
▁please	-4271
▁reject	-4272
▁theirs	-4273
▁display	-4274
▁quarrel	-4275
▁showing	-4276
▁success	-4277
▁Amorites	-4278
▁Proverbs	-4279
▁students	-4280
▁stretching	-4281
jo	-4282
org	-4283
▁36	-4284
▁Gr	-4285
ales	-4286
▁Amm	-4287
▁Sis	-4288
▁lar	-4289
▁Sept	-4290
angers	-4291
▁Tamar	-4292
▁class	-4293
▁gifts	-4294
▁react	-4295
▁refer	-4296
▁sever	-4297
▁tired	-4298
▁Nazare	-4299
▁Sisera	-4300
▁govnor	-4301
▁rivers	-4302
▁scribe	-4303
▁Russell	-4304
▁Synagog	-4305
▁further	-4306
▁provided	-4307
▁suddenly	-4308
▁divisions	-4309
▁encouraged	-4310
by	-4311
abor	-4312
▁mis	-4313
Bikos	-4314
anish	-4315
armel	-4316
avior	-4317
▁Eccl	-4318
▁cold	-4319
▁Nabal	-4320
▁Ruler	-4321
▁dedik	-4322
▁naked	-4323
▁sixth	-4324
▁Esther	-4325
▁bright	-4326
▁harmony	-4327
▁letters	-4328
▁natural	-4329
▁twisted	-4330
▁washing	-4331
▁wounded	-4332
▁Mordekai	-4333
▁kommunity	-4334
,”	-4335
OR	-4336
How	-4337
let	-4338
ogn	-4339
▁42	-4340
▁50	-4341
▁Su	-4342
ecai	-4343
oung	-4344
▁Hur	-4345
▁Jan	-4346
▁Mar	-4347
▁Nun	-4348
▁vol	-4349
amels	-4350
▁Nile	-4351
▁boys	-4352
▁fert	-4353
overed	-4354
ustral	-4355
▁Again	-4356
▁Young	-4357
▁everl	-4358
▁fifth	-4359
▁fount	-4360
▁known	-4361
▁lions	-4362
reation	-4363
▁Indeed	-4364
▁adjust	-4365
▁amount	-4366
▁disapp	-4367
▁finger	-4368
▁island	-4369
▁lesson	-4370
▁partic	-4371
▁recogn	-4372
▁simply	-4373
▁strent	-4374
▁Austral	-4375
▁accompl	-4376
▁hanging	-4377
▁streets	-4378
▁Damascus	-4379
▁evidence	-4380
▁patience	-4381
▁including	-4382
▁arrangement	-4383
▁understanding	-4384
ela	-4385
uce	-4386
ably	-4387
edan	-4388
four	-4389
town	-4390
▁Ask	-4391
▁Men	-4392
▁que	-4393
▁saf	-4394
ardin	-4395
owing	-4396
ropri	-4397
▁News	-4398
▁mild	-4399
▁worm	-4400
azarus	-4401
▁Hiram	-4402
▁Never	-4403
▁hated	-4404
▁stamp	-4405
▁Jewish	-4406
▁inform	-4407
▁unable	-4408
▁answers	-4409
▁accepted	-4410
▁assembly	-4411
▁komplete	-4412
▁challenges	-4413
me	-4414
wh	-4415
▁Fe	-4416
asha	-4417
emen	-4418
gail	-4419
igin	-4420
▁193	-4421
▁Acc	-4422
▁nak	-4423
ature	-4424
▁Elam	-4425
▁Hush	-4426
▁Look	-4427
▁Send	-4428
▁ends	-4429
▁feed	-4430
▁unle	-4431
teenth	-4432
▁Naomi	-4433
▁Napht	-4434
▁Titus	-4435
▁Wiked	-4436
▁avail	-4437
▁books	-4438
▁inher	-4439
▁least	-4440
Anybody	-4441
▁Shekem	-4442
▁States	-4443
▁credit	-4444
▁cursed	-4445
▁eighty	-4446
▁injust	-4447
▁pulled	-4448
▁threat	-4449
▁tishas	-4450
▁vanish	-4451
▁Abigail	-4452
▁justice	-4453
▁dedikate	-4454
▁followers	-4455
▁foundashon	-4456
▁instrument	-4457
▁everlasting	-4458
To	-4459
inn	-4460
oah	-4461
oph	-4462
ral	-4463
▁41	-4464
▁Te	-4465
cial	-4466
▁Deb	-4467
▁Dec	-4468
▁Elk	-4469
▁Fil	-4470
▁Net	-4471
▁hom	-4472
▁rut	-4473
▁unw	-4474
itten	-4475
▁Bapt	-4476
▁else	-4477
▁konc	-4478
▁role	-4479
▁sinc	-4480
▁Joram	-4481
▁Shall	-4482
▁Thess	-4483
▁dance	-4484
▁exist	-4485
▁feada	-4486
▁klimb	-4487
▁ornam	-4488
▁pains	-4489
▁plans	-4490
▁tonda	-4491
▁Jeshua	-4492
▁choice	-4493
▁regret	-4494
▁Gershon	-4495
▁Lazarus	-4496
▁ability	-4497
▁anxiety	-4498
▁brought	-4499
▁quality	-4500
▁tongues	-4501
▁horsemen	-4502
▁stronger	-4503
▁treasure	-4504
▁privilege	-4505
▁translate	-4506
All	-4507
azy	-4508
has	-4509
▁ze	-4510
ades	-4511
apan	-4512
ouds	-4513
spel	-4514
▁199	-4515
▁smo	-4516
ither	-4517
orrah	-4518
▁faul	-4519
▁hell	-4520
▁hung	-4521
▁rejo	-4522
▁zeal	-4523
▁Amnon	-4524
▁Barak	-4525
▁Nehem	-4526
▁awake	-4527
▁faced	-4528
▁queen	-4529
▁sanct	-4530
▁Baasha	-4531
▁Naboth	-4532
▁Praise	-4533
▁arrows	-4534
▁clouds	-4535
▁damage	-4536
▁gospel	-4537
▁truths	-4538
▁united	-4539
▁unless	-4540
▁Elkanah	-4541
▁Germany	-4542
▁Abimelek	-4543
▁Gomorrah	-4544
▁Naphtali	-4545
▁humility	-4546
▁inspired	-4547
▁purposes	-4548
▁witnesses	-4549
di	-4550
li	-4551
▁60	-4552
▁Ke	-4553
ebel	-4554
▁Bro	-4555
▁Has	-4556
▁Ras	-4557
▁Tir	-4558
▁est	-4559
three	-4560
▁July	-4561
▁lose	-4562
▁mate	-4563
▁pick	-4564
▁Faith	-4565
▁Isaya	-4566
▁Sidon	-4567
▁block	-4568
▁bound	-4569
▁court	-4570
▁motor	-4571
▁shain	-4572
▁shows	-4573
ucation	-4574
▁Rashel	-4575
▁anoint	-4576
▁market	-4577
▁mature	-4578
▁melody	-4579
▁shepad	-4580
▁stated	-4581
▁worker	-4582
ropriate	-4583
▁Jezebel	-4584
▁partial	-4585
▁require	-4586
▁sinagog	-4587
▁assigned	-4588
▁benefits	-4589
▁minister	-4590
▁sometaim	-4591
▁attacking	-4592
▁available	-4593
▁political	-4594
▁regarding	-4595
▁situations	-4596
▁kommandment	-4597
UD	-4598
Awa	-4599
jud	-4600
kus	-4601
▁ow	-4602
head	-4603
port	-4604
▁197	-4605
▁Apr	-4606
▁THE	-4607
▁enk	-4608
▁spr	-4609
▁tab	-4610
▁Barn	-4611
▁Evry	-4612
▁Here	-4613
▁Nine	-4614
▁firm	-4615
▁veil	-4616
hedrin	-4617
▁Being	-4618
▁argue	-4619
▁catch	-4620
▁frame	-4621
▁klear	-4622
▁volun	-4623
▁youth	-4624
itation	-4625
▁Kadesh	-4626
▁sexual	-4627
▁smooth	-4628
▁tested	-4629
▁window	-4630
▁Asherah	-4631
▁Azariah	-4632
▁Shallum	-4633
▁Whoever	-4634
▁fearing	-4635
▁parabol	-4636
▁trained	-4637
▁website	-4638
▁welcome	-4639
▁Apostles	-4640
▁Mordecai	-4641
▁everyday	-4642
▁physical	-4643
▁Sanhedrin	-4644
▁enkourage	-4645
▁influence	-4646
▁unleavened	-4647
ix	-4648
aea	-4649
com	-4650
egr	-4651
veh	-4652
▁Ed	-4653
▁km	-4654
aper	-4655
like	-4656
▁Hez	-4657
▁Thr	-4658
▁jew	-4659
▁pow	-4660
▁var	-4661
house	-4662
▁Hash	-4663
▁Naam	-4664
▁Neth	-4665
▁arts	-4666
▁bits	-4667
▁held	-4668
▁pila	-4669
before	-4670
inadab	-4671
inehas	-4672
▁Zerub	-4673
▁liter	-4674
▁raise	-4675
ocratic	-4676
▁diasef	-4677
▁gardin	-4678
▁guards	-4679
▁integr	-4680
▁changes	-4681
▁demonst	-4682
▁million	-4683
▁Ethiopia	-4684
▁mirakles	-4685
▁promised	-4686
▁somebody	-4687
▁Australia	-4688
▁dedication	-4689
▁hospitality	-4690
oa	-4691
Yor	-4692
big	-4693
ium	-4694
san	-4695
une	-4696
esus	-4697
omba	-4698
onom	-4699
▁196	-4700
▁tou	-4701
ushan	-4702
▁Asia	-4703
▁Fear	-4704
▁Only	-4705
▁Work	-4706
▁coat	-4707
▁earn	-4708
▁flag	-4709
▁genu	-4710
▁knee	-4711
▁late	-4712
▁nose	-4713
▁seas	-4714
▁shot	-4715
icated	-4716
skirts	-4717
▁godly	-4718
▁heard	-4719
▁occur	-4720
▁souls	-4721
▁thick	-4722
▁facing	-4723
▁forest	-4724
▁humble	-4725
▁itself	-4726
▁mouths	-4727
▁purple	-4728
▁strive	-4729
▁untrue	-4730
▁Through	-4731
▁ancient	-4732
▁contain	-4733
▁wasting	-4734
▁written	-4735
▁Adonijah	-4736
▁Damaskus	-4737
▁whenever	-4738
▁languages	-4739
▁outskirts	-4740
▁neighbours	-4741
bed	-4742
ems	-4743
ery	-4744
mot	-4745
▁ty	-4746
adan	-4747
ahaz	-4748
circ	-4749
erah	-4750
ured	-4751
used	-4752
▁Gaz	-4753
▁Mad	-4754
▁Ner	-4755
▁Tob	-4756
Where	-4757
eyond	-4758
ource	-4759
▁bott	-4760
▁envy	-4761
▁star	-4762
▁Apart	-4763
▁Feast	-4764
▁Micah	-4765
▁Would	-4766
▁lived	-4767
▁oaths	-4768
▁Jabesh	-4769
▁Josaya	-4770
▁Things	-4771
▁borrow	-4772
▁decide	-4773
▁parted	-4774
▁police	-4775
▁recall	-4776
▁thorns	-4777
▁walled	-4778
▁Anytime	-4779
▁fertile	-4780
▁exercise	-4781
▁teachers	-4782
▁Meshullam	-4783
▁according	-4784
▁interests	-4785
▁Canaanites	-4786
▁appreciate	-4787
enn	-4788
fru	-4789
▁Em	-4790
iced	-4791
keep	-4792
▁Eld	-4793
▁Hiv	-4794
▁Use	-4795
osing	-4796
▁Naft	-4797
▁York	-4798
▁melt	-4799
▁mush	-4800
▁ston	-4801
iction	-4802
▁Tower	-4803
▁impro	-4804
▁obedi	-4805
▁spoke	-4806
▁Hazael	-4807
▁Saying	-4808
▁doings	-4809
▁feared	-4810
▁helper	-4811
▁safely	-4812
▁wounds	-4813
▁Abishai	-4814
▁allowed	-4815
▁pulling	-4816
▁Betlehem	-4817
▁Philippi	-4818
▁contrast	-4819
▁guidance	-4820
▁honoured	-4821
▁promises	-4822
▁attending	-4823
the	-4824
uiz	-4825
una	-4826
▁1,	-4827
▁wa	-4828
ceed	-4829
ploy	-4830
reel	-4831
▁Cat	-4832
▁IUD	-4833
▁Pot	-4834
▁ext	-4835
▁sum	-4836
arius	-4837
holic	-4838
▁Eufr	-4839
▁Help	-4840
▁Well	-4841
▁deaf	-4842
▁decl	-4843
▁neut	-4844
▁snow	-4845
ection	-4846
friend	-4847
▁akuiz	-4848
▁equal	-4849
▁fourt	-4850
▁large	-4851
▁nomba	-4852
▁wants	-4853
workers	-4854
▁Arabah	-4855
▁boards	-4856
▁farmer	-4857
▁former	-4858
▁guilty	-4859
▁looked	-4860
▁modest	-4861
▁origin	-4862
▁sounds	-4863
▁English	-4864
▁Jezreel	-4865
▁Nineveh	-4866
▁sitdown	-4867
▁warning	-4868
▁Eufrates	-4869
▁persecut	-4870
▁positive	-4871
▁speaking	-4872
▁Aramaeans	-4873
▁cultivate	-4874
▁effective	-4875
▁integrity	-4876
▁violently	-4877
▁appropriate	-4878
▁worshipping	-4879
aal	-4880
cry	-4881
▁43	-4882
▁Ol	-4883
fall	-4884
ikam	-4885
shon	-4886
thur	-4887
uary	-4888
▁Gat	-4889
▁Rep	-4890
▁Tar	-4891
▁Uri	-4892
▁sty	-4893
▁unb	-4894
▁Town	-4895
▁sant	-4896
▁Afric	-4897
▁Maase	-4898
▁kamel	-4899
▁leper	-4900
gardens	-4901
▁Arthur	-4902
▁camels	-4903
▁doctor	-4904
▁guests	-4905
▁purpol	-4906
▁sinnas	-4907
▁Naftali	-4908
▁inherit	-4909
▁invited	-4910
▁persons	-4911
▁reasons	-4912
▁refugee	-4913
▁santify	-4914
▁touched	-4915
▁Brothers	-4916
▁accounts	-4917
▁argument	-4918
▁articles	-4919
▁measures	-4920
▁challenge	-4921
▁distribut	-4922
▁injustice	-4923
▁messenjas	-4924
▁illustration	-4925
▁representatives	-4926
ae	-4927
to	-4928
ony	-4929
▁Ek	-4930
▁La	-4931
▁ax	-4932
▁jw	-4933
True	-4934
aken	-4935
erez	-4936
ergy	-4937
ford	-4938
hana	-4939
▁Pre	-4940
▁ann	-4941
▁neg	-4942
ifren	-4943
itend	-4944
shuku	-4945
▁Also	-4946
▁Kish	-4947
▁Zeru	-4948
▁enga	-4949
▁pool	-4950
▁tail	-4951
heless	-4952
othing	-4953
tanoon	-4954
▁Arnon	-4955
▁Estha	-4956
▁Filip	-4957
▁chair	-4958
▁deser	-4959
▁devil	-4960
▁herds	-4961
▁hours	-4962
▁knees	-4963
▁seats	-4964
▁trave	-4965
▁tried	-4966
▁Hadade	-4967
▁Philip	-4968
▁deeply	-4969
▁voices	-4970
▁damaged	-4971
▁earthly	-4972
▁enjoyed	-4973
▁praised	-4974
▁pritend	-4975
▁realize	-4976
▁sharing	-4977
▁Catholic	-4978
▁Nehemiah	-4979
▁aftanoon	-4980
▁approach	-4981
▁fountain	-4982
▁fourteen	-4983
▁planting	-4984
▁enjoyment	-4985
▁considered	-4986
▁paragraphs	-4987
▁encouraging	-4988
Go	-4989
dod	-4990
gyz	-4991
zah	-4992
ived	-4993
sequ	-4994
step	-4995
ying	-4996
▁Arm	-4997
▁Kyr	-4998
▁Ref	-4999
▁bal	-5000
▁pig	-5001
ental	-5002
sheba	-5003
▁Ohol	-5004
▁Shel	-5005
▁fart	-5006
▁shek	-5007
circle	-5008
ically	-5009
▁Ghana	-5010
▁Uriah	-5011
▁guard	-5012
▁kween	-5013
▁newly	-5014
▁outer	-5015
▁setol	-5016
▁shuku	-5017
▁smile	-5018
▁Ashdod	-5019
▁Better	-5020
▁Coloss	-5021
▁During	-5022
▁Kyrgyz	-5023
▁Shebna	-5024
▁beyond	-5025
▁bottom	-5026
▁hungry	-5027
▁sacrif	-5028
▁Shushan	-5029
▁company	-5030
▁decided	-5031
▁flowers	-5032
▁herself	-5033
▁letting	-5034
▁sincere	-5035
▁talents	-5036
▁Barnabas	-5037
▁Jehoahaz	-5038
▁measured	-5039
▁Therefore	-5040
▁explained	-5041
▁governing	-5042
▁uncovered	-5043
bl	-5044
aaz	-5045
dey	-5046
hud	-5047
ley	-5048
▁70	-5049
▁Er	-5050
▁Ly	-5051
Abeg	-5052
loth	-5053
onia	-5054
osed	-5055
▁Bil	-5056
▁Oct	-5057
▁ack	-5058
towns	-5059
▁1914	-5060
▁Hitt	-5061
▁Pray	-5062
▁fest	-5063
▁flog	-5064
▁salt	-5065
▁shit	-5066
▁wuna	-5067
ements	-5068
worker	-5069
▁Asaph	-5070
▁Hagar	-5071
▁Nebat	-5072
▁Zabud	-5073
▁apart	-5074
▁ashes	-5075
▁ephod	-5076
▁holes	-5077
▁Darius	-5078
▁Having	-5079
▁Judaea	-5080
▁Kohath	-5081
▁acknow	-5082
▁battle	-5083
▁cities	-5084
▁commit	-5085
▁events	-5086
▁Johanan	-5087
▁koncern	-5088
▁modesty	-5089
▁promote	-5090
▁rushing	-5091
▁several	-5092
▁streams	-5093
▁Shemaiah	-5094
▁magazine	-5095
▁struggle	-5096
▁According	-5097
▁provision	-5098
▁weariness	-5099
▁information	-5100
▁ministerial	-5101
17	-5102
gu	-5103
aid	-5104
zar	-5105
▁Aw	-5106
▁Og	-5107
ahab	-5108
anel	-5109
hood	-5110
iana	-5111
ibru	-5112
▁100	-5113
▁Min	-5114
▁Sad	-5115
▁Tur	-5116
dress	-5117
itary	-5118
▁Joel	-5119
▁Lead	-5120
▁Obad	-5121
▁fold	-5122
▁hamm	-5123
▁lack	-5124
▁rich	-5125
fruits	-5126
hemesh	-5127
ission	-5128
▁Creat	-5129
▁Ekron	-5130
▁Kohat	-5131
▁Nadab	-5132
▁Perez	-5133
▁Periz	-5134
▁Shamm	-5135
▁bribe	-5136
▁bride	-5137
▁daily	-5138
▁quite	-5139
▁super	-5140
▁urged	-5141
▁waist	-5142
▁Hezron	-5143
▁dreams	-5144
▁within	-5145
▁Jehoram	-5146
▁conclud	-5147
▁despite	-5148
▁improve	-5149
▁knowing	-5150
▁singing	-5151
▁windows	-5152
▁Whatever	-5153
▁curtains	-5154
▁explains	-5155
▁happened	-5156
▁instance	-5157
▁overturn	-5158
▁education	-5159
▁household	-5160
In	-5161
NE	-5162
ee	-5163
akk	-5164
ldo	-5165
book	-5166
lamb	-5167
rupt	-5168
sing	-5169
vert	-5170
yrus	-5171
▁119	-5172
▁Zik	-5173
▁pat	-5174
▁pop	-5175
essed	-5176
iling	-5177
seven	-5178
shish	-5179
▁Ahim	-5180
▁Brit	-5181
▁Judg	-5182
▁crow	-5183
▁hire	-5184
▁size	-5185
▁tick	-5186
people	-5187
▁Awake	-5188
▁Kaleb	-5189
▁ahead	-5190
▁ephah	-5191
▁fresh	-5192
▁monts	-5193
▁prove	-5194
flowing	-5195
▁10,000	-5196
▁Africa	-5197
▁Canada	-5198
▁Jezrel	-5199
▁Others	-5200
▁barley	-5201
▁caused	-5202
▁jewels	-5203
▁manage	-5204
▁powers	-5205
▁report	-5206
▁shield	-5207
▁slaves	-5208
▁spring	-5209
▁swords	-5210
▁Jehoash	-5211
▁created	-5212
▁genuine	-5213
▁lessons	-5214
▁subject	-5215
▁workmen	-5216
▁Tarshish	-5217
▁fruitage	-5218
▁jealousy	-5219
▁occasion	-5220
▁psalmist	-5221
▁attackers	-5222
▁endurance	-5223
▁firstborn	-5224
▁lampstand	-5225
▁publisher	-5226
▁importance	-5227
▁requesting	-5228
▁undastandin	-5229
,’	-5230
.0	-5231
16	-5232
eba	-5233
eda	-5234
har	-5235
akar	-5236
wide	-5237
▁Con	-5238
▁Ire	-5239
▁Whe	-5240
▁egg	-5241
acked	-5242
alled	-5243
ample	-5244
anted	-5245
uable	-5246
▁Cont	-5247
▁June	-5248
▁bowl	-5249
▁clay	-5250
▁clos	-5251
▁harp	-5252
▁push	-5253
▁rely	-5254
overty	-5255
▁Clear	-5256
▁Haran	-5257
▁Hence	-5258
▁Hibru	-5259
▁Japan	-5260
▁Mizpa	-5261
▁Nahor	-5262
▁Ramot	-5263
▁backs	-5264
▁cubit	-5265
▁fault	-5266
▁floor	-5267
▁grate	-5268
▁karve	-5269
▁motiv	-5270
▁reven	-5271
▁rizin	-5272
▁shout	-5273
▁sizin	-5274
▁teeth	-5275
itating	-5276
▁depend	-5277
▁divine	-5278
▁employ	-5279
▁extend	-5280
▁hoping	-5281
▁outcry	-5282
▁Baptist	-5283
▁Creator	-5284
▁Ireland	-5285
▁Shemaya	-5286
▁commend	-5287
▁culture	-5288
▁deliver	-5289
▁kontain	-5290
▁perform	-5291
▁program	-5292
▁rewards	-5293
▁churches	-5294
▁greeting	-5295
▁husbands	-5296
▁prospect	-5297
▁refugees	-5298
▁everytime	-5299
▁throughout	-5300
▁instruction	-5301
▁publications	-5302
One	-5303
hab	-5304
hip	-5305
irt	-5306
neh	-5307
oll	-5308
▁44	-5309
▁Zo	-5310
esis	-5311
ibed	-5312
iers	-5313
oved	-5314
▁Hit	-5315
▁Was	-5316
▁kil	-5317
▁suc	-5318
aries	-5319
enced	-5320
iezer	-5321
▁Amas	-5322
▁Cain	-5323
▁City	-5324
▁Eliz	-5325
▁Gaza	-5326
▁cost	-5327
▁dawn	-5328
▁dogs	-5329
▁flat	-5330
▁jump	-5331
▁pack	-5332
▁unse	-5333
▁Brook	-5334
▁Elish	-5335
▁Enoch	-5336
▁Maria	-5337
▁Ramah	-5338
▁Zerah	-5339
▁basis	-5340
▁flame	-5341
▁hairc	-5342
▁ident	-5343
▁prior	-5344
▁resol	-5345
▁wheel	-5346
ination	-5347
▁Turkey	-5348
▁openly	-5349
▁prejud	-5350
▁rebell	-5351
▁script	-5352
servants	-5353
▁Genesis	-5354
▁Kiriath	-5355
▁Whether	-5356
▁convers	-5357
▁succeed	-5358
▁thunder	-5359
▁boundary	-5360
▁military	-5361
▁provides	-5362
▁continued	-5363
▁entertain	-5364
▁suffering	-5365
▁teachings	-5366
▁questioning	-5367
ex	-5368
arl	-5369
kor	-5370
▁Eg	-5371
▁Fo	-5372
King	-5373
enai	-5374
itan	-5375
room	-5376
▁Ang	-5377
▁Cur	-5378
▁Fin	-5379
▁Num	-5380
▁Zim	-5381
▁eat	-5382
▁emp	-5383
▁led	-5384
▁lot	-5385
▁mer	-5386
Tisha	-5387
allow	-5388
athar	-5389
light	-5390
ories	-5391
ution	-5392
▁Gate	-5393
▁Gath	-5394
▁Know	-5395
▁Rama	-5396
▁Senn	-5397
▁calm	-5398
▁exch	-5399
▁plok	-5400
▁prim	-5401
▁repl	-5402
▁Peace	-5403
▁Rahab	-5404
▁Story	-5405
▁foret	-5406
▁gates	-5407
▁hooks	-5408
▁knife	-5409
▁lords	-5410
▁paper	-5411
▁rocks	-5412
▁secre	-5413
▁wheat	-5414
keepers	-5415
▁Ahijah	-5416
▁Benaya	-5417
▁France	-5418
▁awasef	-5419
▁eleven	-5420
▁sacred	-5421
▁stores	-5422
▁summer	-5423
▁Amaziah	-5424
▁Clearly	-5425
▁desired	-5426
▁examine	-5427
▁fifteen	-5428
▁include	-5429
▁leather	-5430
▁relates	-5431
▁sixteen	-5432
▁station	-5433
▁Pharisee	-5434
▁hundreds	-5435
▁included	-5436
▁messenja	-5437
▁mistakes	-5438
▁soldiers	-5439
▁specific	-5440
▁beginning	-5441
▁believers	-5442
▁expressed	-5443
▁haircloth	-5444
▁faithfully	-5445
▁interested	-5446
▁particular	-5447
▁revelation	-5448
▁experiences	-5449
▁spirituality	-5450
aly	-5451
cle	-5452
ean	-5453
gai	-5454
haz	-5455
int	-5456
nin	-5457
▁46	-5458
▁Id	-5459
▁Iz	-5460
▁Om	-5461
▁ac	-5462
▁ph	-5463
aint	-5464
baal	-5465
otam	-5466
ruct	-5467
▁Ith	-5468
▁Ked	-5469
▁Sib	-5470
▁Ste	-5471
▁Wis	-5472
▁ant	-5473
▁kid	-5474
▁oak	-5475
▁rev	-5476
▁ril	-5477
▁sir	-5478
iches	-5479
ighty	-5480
iriam	-5481
onomy	-5482
▁Hans	-5483
▁Leta	-5484
▁Prom	-5485
▁Till	-5486
▁disp	-5487
▁fift	-5488
▁port	-5489
▁upro	-5490
amasta	-5491
difren	-5492
earing	-5493
▁Among	-5494
▁Cyrus	-5495
▁Mikah	-5496
▁basic	-5497
▁style	-5498
▁weave	-5499
theless	-5500
unities	-5501
▁Elders	-5502
▁Miriam	-5503
▁Mizpah	-5504
▁Plenty	-5505
▁closer	-5506
▁convin	-5507
▁eighth	-5508
▁locust	-5509
▁pounds	-5510
▁raised	-5511
▁single	-5512
▁Amazaya	-5513
▁Similar	-5514
▁arrived	-5515
▁aspects	-5516
▁beliefs	-5517
▁emotion	-5518
▁mirakle	-5519
▁results	-5520
▁revensh	-5521
▁seeking	-5522
▁swallow	-5523
▁valleys	-5524
▁answered	-5525
▁biginnin	-5526
▁goodness	-5527
▁grateful	-5528
▁official	-5529
▁preached	-5530
▁required	-5531
▁unwalled	-5532
▁valuable	-5533
▁appointed	-5534
▁relatives	-5535
▁Philistine	-5536
▁eventually	-5537
▁literature	-5538
▁personally	-5539
hur	-5540
ina	-5541
med	-5542
uck	-5543
▁JE	-5544
Even	-5545
adow	-5546
felt	-5547
look	-5548
▁Gol	-5549
▁Mag	-5550
▁Mas	-5551
▁Mel	-5552
▁Out	-5553
▁Sec	-5554
▁Zib	-5555
▁emb	-5556
▁fis	-5557
achar	-5558
azzar	-5559
ciety	-5560
eight	-5561
ister	-5562
▁Amos	-5563
▁Anat	-5564
▁Shim	-5565
▁arch	-5566
▁capt	-5567
▁fund	-5568
▁init	-5569
▁kold	-5570
▁shuk	-5571
▁type	-5572
▁vict	-5573
▁Caleb	-5574
▁Eliab	-5575
▁Sarai	-5576
▁board	-5577
▁knows	-5578
▁ruled	-5579
▁seeds	-5580
▁twice	-5581
ernacle	-5582
eronomy	-5583
peopled	-5584
▁Hushai	-5585
▁Uzziah	-5586
▁cooked	-5587
▁flames	-5588
▁obtain	-5589
▁stoned	-5590
▁stresh	-5591
▁Benaiah	-5592
▁Further	-5593
▁Issakar	-5594
▁Michael	-5595
▁blessed	-5596
▁dropped	-5597
▁neutral	-5598
▁prevent	-5599
▁secular	-5600
▁testing	-5601
▁weather	-5602
▁Issachar	-5603
▁festival	-5604
▁powerful	-5605
▁practice	-5606
▁rewarded	-5607
▁shutting	-5608
▁Synagogue	-5609
▁comforted	-5610
▁described	-5611
▁heartfelt	-5612
▁salvashon	-5613
▁unpeopled	-5614
▁conditions	-5615
▁immorality	-5616
▁pioneering	-5617
▁tabernacle	-5618
▁Deuteronomy	-5619
▁overflowing	-5620
▁Nevertheless	-5621
ma	-5622
abb	-5623
eng	-5624
hop	-5625
isc	-5626
uah	-5627
ukk	-5628
agas	-5629
sues	-5630
tary	-5631
trot	-5632
▁Mil	-5633
▁Tah	-5634
▁cow	-5635
▁def	-5636
▁pul	-5637
Hadad	-5638
Pipol	-5639
acing	-5640
urity	-5641
vious	-5642
▁Fest	-5643
▁Jair	-5644
▁Over	-5645
▁Shob	-5646
▁Wise	-5647
▁adul	-5648
▁agri	-5649
▁hurt	-5650
▁poin	-5651
▁rice	-5652
▁shoe	-5653
aining	-5654
anabas	-5655
asters	-5656
mighty	-5657
osheth	-5658
▁April	-5659
▁Natan	-5660
▁Teman	-5661
▁accur	-5662
▁added	-5663
▁aware	-5664
▁chest	-5665
▁shoes	-5666
▁solve	-5667
▁vines	-5668
▁Hamath	-5669
▁Hashab	-5670
▁Naaman	-5671
▁Savior	-5672
▁Shelah	-5673
▁behalf	-5674
▁kattle	-5675
▁proved	-5676
▁source	-5677
▁states	-5678
▁stored	-5679
standing	-5680
▁Ahimele	-5681
▁Britain	-5682
▁Deborah	-5683
▁Imagine	-5684
▁consequ	-5685
▁konfuse	-5686
▁observe	-5687
▁protest	-5688
▁refused	-5689
▁rejoice	-5690
▁shepher	-5691
▁Moreover	-5692
▁activity	-5693
▁carriage	-5694
▁creation	-5695
▁eighteen	-5696
▁judgment	-5697
▁original	-5698
▁returned	-5699
▁dedicated	-5700
▁troubling	-5701
▁Revelation	-5702
▁accomplish	-5703
▁privileges	-5704
▁authorities	-5705
lo	-5706
”,	-5707
ias	-5708
olf	-5709
six	-5710
umb	-5711
▁55	-5712
▁65	-5713
▁id	-5714
abad	-5715
azes	-5716
ding	-5717
tery	-5718
zill	-5719
▁Ber	-5720
▁Nic	-5721
▁Sal	-5722
▁Try	-5723
▁abi	-5724
▁axe	-5725
▁fem	-5726
▁job	-5727
ashin	-5728
goats	-5729
iding	-5730
immon	-5731
lined	-5732
pikin	-5733
▁Abed	-5734
▁Lame	-5735
▁abeg	-5736
▁belt	-5737
▁cure	-5738
▁cust	-5739
▁rese	-5740
▁term	-5741
ildren	-5742
zillai	-5743
▁Hazor	-5744
▁Pekah	-5745
▁Samar	-5746
▁above	-5747
▁crowd	-5748
▁final	-5749
▁frequ	-5750
▁koins	-5751
▁overw	-5752
▁shown	-5753
▁Libnah	-5754
▁basins	-5755
▁compar	-5756
▁feasts	-5757
▁hollow	-5758
▁inches	-5759
▁issues	-5760
▁select	-5761
▁shadow	-5762
▁widows	-5763
▁Ahazaya	-5764
▁Ahaziah	-5765
▁Banabas	-5766
▁kareful	-5767
▁poverty	-5768
▁private	-5769
▁related	-5770
▁sirious	-5771
▁visited	-5772
▁volunte	-5773
▁discoura	-5774
▁feasting	-5775
▁laughing	-5776
▁negative	-5777
▁Barzillai	-5778
▁affection	-5779
▁carriages	-5780
▁rilashons	-5781
▁therefore	-5782
▁Jehoiashin	-5783
▁understood	-5784
▁Philippians	-5785
▁suggestions	-5786
▁raitiousness	-5787
▁entertainment	-5788
Be	-5789
ya	-5790
dai	-5791
hum	-5792
mah	-5793
ney	-5794
tai	-5795
▁61	-5796
afet	-5797
ioch	-5798
onse	-5799
road	-5800
▁Jet	-5801
▁Pen	-5802
▁bab	-5803
▁rit	-5804
assed	-5805
claim	-5806
cover	-5807
earim	-5808
eness	-5809
izing	-5810
omach	-5811
oming	-5812
oshet	-5813
tribe	-5814
uries	-5815
▁Mind	-5816
▁Shad	-5817
▁Year	-5818
▁cart	-5819
▁cook	-5820
▁crit	-5821
▁exec	-5822
▁forb	-5823
▁ours	-5824
▁pers	-5825
▁rece	-5826
▁uses	-5827
▁weap	-5828
action	-5829
▁Under	-5830
▁Zidon	-5831
▁areas	-5832
▁claim	-5833
▁dekor	-5834
▁grind	-5835
▁oppoz	-5836
▁waves	-5837
▁Kiriat	-5838
▁Tirzah	-5839
▁asking	-5840
▁corded	-5841
▁defeat	-5842
▁entire	-5843
▁leaven	-5844
▁riches	-5845
▁speech	-5846
uestions	-5847
▁Antioch	-5848
▁England	-5849
▁Ephesus	-5850
▁Perhaps	-5851
▁choices	-5852
▁sayings	-5853
▁setting	-5854
▁sinning	-5855
▁sounded	-5856
▁stomach	-5857
▁visions	-5858
▁Nazareth	-5859
▁foretold	-5860
▁overwhel	-5861
▁stranger	-5862
▁watchmen	-5863
▁Similarly	-5864
▁container	-5865
▁traveling	-5866
▁invitation	-5867
▁fulfillment	-5868
▁outstanding	-5869
▁distribution	-5870
’,	-5871
iar	-5872
rom	-5873
rus	-5874
▁52	-5875
▁Gl	-5876
▁MA	-5877
alon	-5878
hand	-5879
nine	-5880
oman	-5881
raid	-5882
▁147	-5883
▁192	-5884
▁Dor	-5885
▁Jok	-5886
▁Mes	-5887
▁adm	-5888
▁fil	-5889
▁poz	-5890
▁unn	-5891
▁wet	-5892
akers	-5893
ashib	-5894
ogram	-5895
zabad	-5896
▁1919	-5897
▁Kway	-5898
▁Maac	-5899
▁Naim	-5900
▁Time	-5901
▁Wish	-5902
▁bake	-5903
▁dice	-5904
▁grad	-5905
▁kook	-5906
▁leda	-5907
▁upon	-5908
gilead	-5909
ipping	-5910
▁Hadad	-5911
▁Hamat	-5912
▁Teach	-5913
▁Three	-5914
▁crime	-5915
▁lines	-5916
▁manna	-5917
▁noble	-5918
▁poles	-5919
▁skill	-5920
▁spent	-5921
▁woods	-5922
ageddon	-5923
▁Anytin	-5924
▁Baruch	-5925
▁Keilah	-5926
▁Levite	-5927
▁Wisdom	-5928
▁behind	-5929
▁formed	-5930
▁liedan	-5931
▁notice	-5932
▁reveal	-5933
▁thread	-5934
▁Despite	-5935
▁builder	-5936
▁chariot	-5937
▁lowland	-5938
▁miracle	-5939
▁project	-5940
▁dekorate	-5941
▁involves	-5942
▁kilogram	-5943
▁pozishon	-5944
▁realized	-5945
▁response	-5946
▁ornaments	-5947
▁prejudice	-5948
▁strangers	-5949
▁Kwayamasta	-5950
▁expression	-5951
▁opposition	-5952
▁consequences	-5953
▁opportunities	-5954
OM	-5955
ff	-5956
Jer	-5957
dal	-5958
ius	-5959
▁53	-5960
atar	-5961
azon	-5962
hazi	-5963
ibah	-5964
nego	-5965
oppa	-5966
pent	-5967
stan	-5968
zaya	-5969
▁App	-5970
▁abs	-5971
▁mor	-5972
▁myr	-5973
▁rot	-5974
▁sus	-5975
anias	-5976
istic	-5977
okust	-5978
oshon	-5979
▁Amen	-5980
▁Char	-5981
▁Land	-5982
▁bond	-5983
▁deny	-5984
▁glor	-5985
▁grip	-5986
▁hall	-5987
▁herd	-5988
▁idol	-5989
▁stag	-5990
ieving	-5991
▁Amram	-5992
▁Maced	-5993
▁Small	-5994
▁anger	-5995
▁estab	-5996
▁homes	-5997
▁loves	-5998
▁majik	-5999
▁males	-6000
▁meant	-6001
▁vital	-6002
herford	-6003
▁Asahel	-6004
▁Carmel	-6005
▁Rabbah	-6006
▁Uzziel	-6007
▁afraid	-6008
▁brings	-6009
▁custom	-6010
▁detail	-6011
▁forbid	-6012
▁inmost	-6013
▁manner	-6014
▁shance	-6015
▁univer	-6016
▁wheels	-6017
▁Ahimaaz	-6018
▁Eliakim	-6019
▁Hilkaya	-6020
▁Hilkiah	-6021
▁corrupt	-6022
▁highest	-6023
▁konfort	-6024
▁loyalty	-6025
▁mercies	-6026
▁outcome	-6027
▁praying	-6028
▁Eliashib	-6029
▁breastpl	-6030
▁changing	-6031
▁downfall	-6032
▁meditate	-6033
▁buildings	-6034
▁confident	-6035
▁disappear	-6036
▁Armageddon	-6037
▁Rutherford	-6038
▁discussion	-6039
▁reasonable	-6040
▁suggestion	-6041
▁theocratic	-6042
▁governments	-6043
▁translation	-6044
,5	-6045
Ev	-6046
ask	-6047
gev	-6048
hom	-6049
isk	-6050
sha	-6051
▁Gu	-6052
▁ez	-6053
▁hy	-6054
adre	-6055
ists	-6056
obah	-6057
rian	-6058
roer	-6059
▁400	-6060
▁Eur	-6061
▁bud	-6062
▁foc	-6063
▁owe	-6064
▁tot	-6065
▁wra	-6066
Jesus	-6067
aming	-6068
anced	-6069
antly	-6070
aphan	-6071
cycle	-6072
eavor	-6073
hanan	-6074
unneh	-6075
▁Amon	-6076
▁Bani	-6077
▁Fran	-6078
▁Mach	-6079
▁Omri	-6080
▁Publ	-6081
▁Russ	-6082
▁Step	-6083
▁Zeph	-6084
▁bull	-6085
▁film	-6086
▁gras	-6087
▁host	-6088
▁inse	-6089
▁repe	-6090
▁swim	-6091
▁tend	-6092
▁Elihu	-6093
▁fence	-6094
▁reign	-6095
▁ships	-6096
▁stems	-6097
▁Friend	-6098
▁Gehazi	-6099
▁Jehiel	-6100
▁Judges	-6101
▁Manoah	-6102
▁Mikaya	-6103
▁compan	-6104
▁extent	-6105
▁female	-6106
▁lokust	-6107
▁parent	-6108
▁plough	-6109
adrezzar	-6110
▁careful	-6111
▁deserve	-6112
▁drained	-6113
▁dressed	-6114
▁earnest	-6115
▁ezample	-6116
▁falsely	-6117
▁finally	-6118
▁focused	-6119
▁Abiathar	-6120
▁Gedalaya	-6121
▁Gedaliah	-6122
▁Hananiah	-6123
▁Sabbaths	-6124
▁designed	-6125
▁exchange	-6126
▁indicate	-6127
▁kontaina	-6128
▁pressure	-6129
▁prophecy	-6130
▁weakness	-6131
▁concerned	-6132
▁Everything	-6133
▁witnessing	-6134
▁Philippines	-6135
▁construction	-6136
▁Nebuchadrezzar	-6137
IN	-6138
co	-6139
00.	-6140
hah	-6141
hor	-6142
lag	-6143
oat	-6144
▁51	-6145
▁Bl	-6146
etta	-6147
heth	-6148
papa	-6149
shan	-6150
ught	-6151
uzar	-6152
▁Bez	-6153
▁Cyp	-6154
▁Del	-6155
▁Fel	-6156
▁Ger	-6157
▁Gos	-6158
▁Res	-6159
▁baf	-6160
▁fun	-6161
elius	-6162
ening	-6163
floor	-6164
icing	-6165
ieves	-6166
stret	-6167
▁2015	-6168
▁Aldo	-6169
▁Gesh	-6170
▁Shun	-6171
▁Ziba	-6172
▁boil	-6173
▁cope	-6174
▁eazy	-6175
▁oven	-6176
▁sear	-6177
▁tops	-6178
aganda	-6179
erning	-6180
ground	-6181
ograph	-6182
vessel	-6183
▁Aroer	-6184
▁Eglon	-6185
▁Heman	-6186
▁Izhar	-6187
▁March	-6188
▁broch	-6189
▁cases	-6190
▁level	-6191
▁lower	-6192
▁tisha	-6193
▁Ahitub	-6194
▁Europe	-6195
▁Goshen	-6196
▁Olives	-6197
▁Ziklag	-6198
▁abroad	-6199
▁ending	-6200
▁filled	-6201
▁frames	-6202
▁publik	-6203
▁sinful	-6204
▁social	-6205
▁strait	-6206
▁surely	-6207
▁wisely	-6208
ornelius	-6209
uzaradan	-6210
▁Abiatar	-6211
▁Gershom	-6212
▁anxious	-6213
▁fleshly	-6214
▁imagine	-6215
▁possess	-6216
▁traders	-6217
▁accurate	-6218
▁followed	-6219
▁footstep	-6220
▁preacher	-6221
▁produced	-6222
▁signific	-6223
▁violence	-6224
▁Ephesians	-6225
▁Macedonia	-6226
▁organized	-6227
▁recognize	-6228
▁Amalekites	-6229
▁Colossians	-6230
▁comforting	-6231
▁comparison	-6232
▁countrymen	-6233
▁courageous	-6234
▁distroshon	-6235
▁overturned	-6236
▁protection	-6237
▁Nebuzaradan	-6238
▁persecution	-6239
▁undertaking	-6240
▁Congregation	-6241
▁strengthened	-6242
.1	-6243
Mi	-6244
Sh	-6245
sl	-6246
aum	-6247
far	-6248
het	-6249
ift	-6250
ira	-6251
leg	-6252
udi	-6253
ycl	-6254
▁Et	-6255
▁Fl	-6256
adas	-6257
afan	-6258
ensh	-6259
ftah	-6260
ippa	-6261
mend	-6262
omas	-6263
ored	-6264
▁Agr	-6265
▁Hod	-6266
▁Kar	-6267
▁Mek	-6268
▁Mex	-6269
▁Tek	-6270
▁Way	-6271
▁che	-6272
Since	-6273
arily	-6274
imate	-6275
ipped	-6276
istry	-6277
otham	-6278
worth	-6279
▁Asaf	-6280
▁Elah	-6281
▁Zera	-6282
▁frog	-6283
▁mile	-6284
▁vide	-6285
▁wars	-6286
ending	-6287
▁Beers	-6288
▁Franz	-6289
▁Joppa	-6290
▁Negev	-6291
▁Repha	-6292
▁beard	-6293
▁blame	-6294
▁eager	-6295
▁facts	-6296
▁impul	-6297
▁masta	-6298
▁ninth	-6299
▁reass	-6300
▁riton	-6301
▁scale	-6302
▁tazon	-6303
▁unbel	-6304
agascar	-6305
▁Ahikam	-6306
▁Festus	-6307
▁Karmel	-6308
▁Mezaya	-6309
▁Rimmon	-6310
▁Second	-6311
▁Uriaya	-6312
▁Uzzaya	-6313
▁announ	-6314
▁caring	-6315
▁feadas	-6316
▁intern	-6317
▁kwensh	-6318
▁minded	-6319
▁overdo	-6320
▁possib	-6321
▁stagga	-6322
▁Agrippa	-6323
▁Finally	-6324
▁applied	-6325
▁assured	-6326
▁beloved	-6327
▁discern	-6328
▁lasting	-6329
▁leading	-6330
▁placing	-6331
▁thieves	-6332
▁Almighty	-6333
▁Elishama	-6334
▁Paradise	-6335
▁affected	-6336
▁complain	-6337
▁diseases	-6338
▁distance	-6339
▁endeavor	-6340
▁instruct	-6341
▁requests	-6342
▁research	-6343
▁Beersheba	-6344
▁Samaritan	-6345
▁abilities	-6346
▁convinced	-6347
▁patiently	-6348
▁positions	-6349
▁practices	-6350
▁receiving	-6351
▁supported	-6352
▁tradishon	-6353
▁Madagascar	-6354
▁supporting	-6355
▁satisfaction	-6356
);	-6357
LE	-6358
pr	-6359
rh	-6360
su	-6361
aia	-6362
asu	-6363
eds	-6364
ena	-6365
gag	-6366
gah	-6367
ger	-6368
oti	-6369
▁II	-6370
girl	-6371
imin	-6372
rain	-6373
▁Nov	-6374
▁Set	-6375
▁non	-6376
▁pan	-6377
▁unf	-6378
anaim	-6379
ested	-6380
innom	-6381
itime	-6382
oting	-6383
which	-6384
▁Agag	-6385
▁Bath	-6386
▁Malk	-6387
▁Pash	-6388
▁Show	-6389
▁Wild	-6390
▁acqu	-6391
▁bite	-6392
▁busy	-6393
▁nets	-6394
▁spot	-6395
altiel	-6396
athite	-6397
mitted	-6398
▁Could	-6399
▁Mahli	-6400
▁Spain	-6401
▁Terah	-6402
▁Zimri	-6403
▁cared	-6404
▁fools	-6405
▁lover	-6406
▁maker	-6407
▁taker	-6408
asuring	-6409
▁12,000	-6410
▁Felisa	-6411
▁Geshur	-6412
▁Greece	-6413
▁Jeftah	-6414
▁advert	-6415
▁belong	-6416
▁commun	-6417
▁curses	-6418
▁easier	-6419
▁kindly	-6420
▁needle	-6421
▁plated	-6422
▁poison	-6423
▁prayed	-6424
▁reduce	-6425
▁trying	-6426
▁Hittite	-6427
▁Nazaret	-6428
▁Pashhur	-6429
▁Saviour	-6430
▁Society	-6431
▁esplain	-6432
▁neither	-6433
▁unsexed	-6434
▁various	-6435
▁virgins	-6436
▁visitor	-6437
▁Mahanaim	-6438
▁builders	-6439
▁distress	-6440
▁expected	-6441
▁includes	-6442
▁mildness	-6443
▁traveled	-6444
▁Everybody	-6445
▁existence	-6446
▁highlight	-6447
▁kommander	-6448
▁sanctuary	-6449
▁sorrowing	-6450
▁transport	-6451
▁Kyrgyzstan	-6452
▁frequently	-6453
▁scriptures	-6454
▁association	-6455
hi	-6456
der	-6457
enu	-6458
ilt	-6459
iod	-6460
mar	-6461
ole	-6462
raz	-6463
▁49	-6464
▁JW	-6465
▁Us	-6466
▁wp	-6467
Wish	-6468
aign	-6469
asia	-6470
atha	-6471
cend	-6472
eent	-6473
ghed	-6474
kets	-6475
kord	-6476
utes	-6477
▁Bel	-6478
▁Jaz	-6479
▁Nad	-6480
▁Rib	-6481
▁Und	-6482
▁dom	-6483
▁dut	-6484
▁kap	-6485
▁mom	-6486
babel	-6487
erate	-6488
hadad	-6489
inkol	-6490
lambs	-6491
ouses	-6492
rates	-6493
thern	-6494
▁Anak	-6495
▁Eber	-6496
▁Ehud	-6497
▁Iddo	-6498
▁Jude	-6499
▁Nebo	-6500
▁Salt	-6501
▁bend	-6502
▁cher	-6503
▁fade	-6504
▁fore	-6505
▁grat	-6506
▁grew	-6507
▁humb	-6508
▁kenu	-6509
▁koin	-6510
▁risk	-6511
▁tool	-6512
estine	-6513
izedek	-6514
▁Amasa	-6515
▁Apoll	-6516
▁Baruk	-6517
▁Jotam	-6518
▁Maaka	-6519
▁chose	-6520
▁doves	-6521
▁drawn	-6522
▁exact	-6523
▁hurry	-6524
▁pilas	-6525
▁print	-6526
▁truck	-6527
▁winds	-6528
idently	-6529
▁Mexico	-6530
▁Timoti	-6531
▁akasia	-6532
▁groups	-6533
▁opened	-6534
▁period	-6535
▁points	-6536
▁rekord	-6537
▁repair	-6538
▁sticks	-6539
▁Ananias	-6540
▁Finehas	-6541
▁bicycle	-6542
▁breasts	-6543
▁condemn	-6544
▁cursing	-6545
▁impress	-6546
▁locusts	-6547
▁masters	-6548
▁studies	-6549
▁December	-6550
▁Ministry	-6551
▁campaign	-6552
▁devotion	-6553
▁dropping	-6554
▁lowlands	-6555
▁observed	-6556
▁overtook	-6557
▁relashon	-6558
▁starting	-6559
▁Wildaness	-6560
▁determine	-6561
▁pleasures	-6562
▁principle	-6563
▁Zerubbabel	-6564
▁background	-6565
▁conviction	-6566
▁provisions	-6567
,)	-6568
RO	-6569
Dat	-6570
Evr	-6571
Kom	-6572
Let	-6573
igr	-6574
ili	-6575
ton	-6576
unk	-6577
xes	-6578
▁Sw	-6579
erus	-6580
fast	-6581
hens	-6582
iffe	-6583
inue	-6584
norr	-6585
orge	-6586
phas	-6587
riel	-6588
rist	-6589
rodu	-6590
ssal	-6591
urim	-6592
urse	-6593
▁Big	-6594
▁Dep	-6595
▁Rec	-6596
▁Reg	-6597
▁lay	-6598
▁pen	-6599
▁ste	-6600
▁sym	-6601
▁wat	-6602
after	-6603
angel	-6604
ethod	-6605
guard	-6606
iffer	-6607
oshea	-6608
quart	-6609
rings	-6610
▁Bere	-6611
▁Gold	-6612
▁Goli	-6613
▁Once	-6614
▁Sing	-6615
▁Thir	-6616
▁Wycl	-6617
▁bows	-6618
▁lets	-6619
▁towa	-6620
ential	-6621
houses	-6622
riving	-6623
ssalon	-6624
▁3,000	-6625
▁Abihu	-6626
▁Ahasu	-6627
▁Hazar	-6628
▁Knorr	-6629
▁Malch	-6630
▁Riana	-6631
▁Tabor	-6632
▁Thank	-6633
▁admon	-6634
▁arise	-6635
▁confl	-6636
▁legal	-6637
▁myrrh	-6638
▁noted	-6639
▁olden	-6640
▁roots	-6641
▁total	-6642
▁trade	-6643
▁views	-6644
artment	-6645
ational	-6646
▁Around	-6647
▁Cyprus	-6648
▁Follow	-6649
▁Magdal	-6650
▁Ramoth	-6651
▁bilong	-6652
▁center	-6653
▁failed	-6654
▁guides	-6655
▁handed	-6656
▁kidney	-6657
▁minute	-6658
▁modern	-6659
▁ofrins	-6660
▁potter	-6661
▁spears	-6662
▁stress	-6663
▁worthy	-6664
▁Service	-6665
▁Stephen	-6666
▁Zeruiah	-6667
▁contact	-6668
▁flaming	-6669
▁involve	-6670
▁officer	-6671
▁partner	-6672
▁science	-6673
▁telling	-6674
▁zealous	-6675
▁Egyptian	-6676
▁Wycliffe	-6677
▁actually	-6678
▁attacked	-6679
▁attended	-6680
▁creature	-6681
▁directed	-6682
▁earliest	-6683
▁hospital	-6684
▁pictured	-6685
▁prepared	-6686
▁remained	-6687
▁songbook	-6688
▁superior	-6689
▁universe	-6690
▁watchman	-6691
▁Ahasuerus	-6692
▁September	-6693
▁Thessalon	-6694
▁Zerubabel	-6695
▁headquart	-6696
▁measuring	-6697
▁demonstrate	-6698
▁punishments	-6699
▁resurrected	-6700
▁conversation	-6701
▁missionaries	-6702
aic	-6703
ald	-6704
con	-6705
ica	-6706
ipe	-6707
ned	-6708
por	-6709
rak	-6710
ume	-6711
usi	-6712
▁47	-6713
▁PE	-6714
Edom	-6715
ager	-6716
alel	-6717
ency	-6718
fine	-6719
fire	-6720
goat	-6721
gran	-6722
hole	-6723
lies	-6724
mash	-6725
omit	-6726
urch	-6727
▁Dib	-6728
▁Neh	-6729
▁Sil	-6730
▁ago	-6731
▁ban	-6732
▁gro	-6733
▁gun	-6734
aceli	-6735
acted	-6736
ansol	-6737
bikos	-6738
icial	-6739
ingly	-6740
ivity	-6741
kelon	-6742
ketry	-6743
overy	-6744
usive	-6745
▁Bela	-6746
▁Both	-6747
▁Lach	-6748
▁baby	-6749
▁bold	-6750
▁cake	-6751
▁offe	-6752
▁pome	-6753
▁pots	-6754
▁sink	-6755
▁teen	-6756
▁trip	-6757
Before	-6758
reshon	-6759
▁Bless	-6760
▁Jazer	-6761
▁Kedar	-6762
▁Media	-6763
▁divor	-6764
▁finan	-6765
▁major	-6766
▁match	-6767
▁ninet	-6768
uilding	-6769
▁Church	-6770
▁Haggai	-6771
▁Hermon	-6772
▁Hoshea	-6773
▁Jotham	-6774
▁Leader	-6775
▁Preach	-6776
▁advant	-6777
▁energy	-6778
▁espect	-6779
▁immedi	-6780
▁kansol	-6781
▁ninety	-6782
▁spoken	-6783
▁Araceli	-6784
▁Lachish	-6785
▁Micaiah	-6786
▁Rephaim	-6787
▁Shaphan	-6788
▁attacks	-6789
▁comment	-6790
▁elevent	-6791
▁immoral	-6792
▁joining	-6793
▁kompare	-6794
▁konfess	-6795
▁medical	-6796
▁passage	-6797
▁primary	-6798
▁prisona	-6799
▁seketry	-6800
▁selfish	-6801
stretched	-6802
▁Abinadab	-6803
▁Ashkelon	-6804
▁Continue	-6805
▁Everyone	-6806
▁Hadadeza	-6807
▁Hananaya	-6808
▁Phinehas	-6809
▁behavior	-6810
▁controll	-6811
▁demonstr	-6812
▁doorways	-6813
▁evritime	-6814
▁governor	-6815
▁northern	-6816
▁pomegran	-6817
▁repeated	-6818
▁resulted	-6819
▁sprinkol	-6820
▁struggol	-6821
▁suffered	-6822
▁thirteen	-6823
▁writings	-6824
▁youngest	-6825
▁Amminadab	-6826
▁centuries	-6827
▁gratitude	-6828
▁intestine	-6829
▁worldwide	-6830
▁Synagogues	-6831
▁fourteenth	-6832
▁meditating	-6833
▁needlework	-6834
▁sacrifices	-6835
▁breastplate	-6836
▁challenging	-6837
TT	-6838
Th	-6839
uh	-6840
arr	-6841
iff	-6842
ika	-6843
met	-6844
vem	-6845
zad	-6846
▁Pu	-6847
back	-6848
blok	-6849
chab	-6850
edee	-6851
face	-6852
gone	-6853
rine	-6854
rius	-6855
ushi	-6856
▁144	-6857
▁Aug	-6858
▁Joy	-6859
▁bat	-6860
▁ink	-6861
▁kor	-6862
▁wed	-6863
addan	-6864
arest	-6865
imony	-6866
ondon	-6867
zadak	-6868
▁Arab	-6869
▁Note	-6870
▁Supp	-6871
▁Uzza	-6872
▁West	-6873
▁adds	-6874
▁attr	-6875
▁figs	-6876
▁pigs	-6877
▁pole	-6878
▁race	-6879
▁ripe	-6880
▁sett	-6881
▁tele	-6882
▁wrap	-6883
epting	-6884
makers	-6885
vember	-6886
▁Eliph	-6887
▁Hamor	-6888
▁Tekoa	-6889
▁Whose	-6890
▁blade	-6891
▁cares	-6892
▁drunk	-6893
▁faint	-6894
▁grasp	-6895
▁ideas	-6896
▁kwota	-6897
▁liver	-6898
▁marks	-6899
▁roads	-6900
▁rotin	-6901
▁rough	-6902
▁spice	-6903
▁state	-6904
▁throw	-6905
▁tools	-6906
▁video	-6907
olation	-6908
shemesh	-6909
▁Abiram	-6910
▁Cursed	-6911
▁Elizab	-6912
▁Giving	-6913
▁London	-6914
▁Maacah	-6915
▁Prayer	-6916
▁appeal	-6917
▁classm	-6918
▁emphas	-6919
▁excell	-6920
▁leaves	-6921
▁relief	-6922
▁resist	-6923
▁rights	-6924
▁snakes	-6925
▁valued	-6926
▁visits	-6927
▁Bezalel	-6928
▁Certain	-6929
▁Zebedee	-6930
▁address	-6931
▁descend	-6932
▁divided	-6933
▁limited	-6934
▁replace	-6935
▁stories	-6936
▁studied	-6937
▁Maaseaya	-6938
▁Maaseiah	-6939
▁November	-6940
▁applying	-6941
▁brochure	-6942
▁concerns	-6943
▁conclude	-6944
▁farthest	-6945
▁ornament	-6946
▁presence	-6947
▁relative	-6948
▁standing	-6949
▁studying	-6950
▁Shealtiel	-6951
▁carefully	-6952
▁magazines	-6953
▁qualified	-6954
▁reasoning	-6955
▁stationed	-6956
▁attempting	-6957
▁propaganda	-6958
▁limitations	-6959
ER	-6960
SS	-6961
ez	-6962
eke	-6963
ige	-6964
lyn	-6965
set	-6966
▁Cl	-6967
▁PS	-6968
Give	-6969
achi	-6970
aled	-6971
erto	-6972
ique	-6973
izes	-6974
ming	-6975
oreb	-6976
rach	-6977
▁150	-6978
▁Fit	-6979
▁Kid	-6980
▁Lak	-6981
▁Mod	-6982
▁Pis	-6983
▁Tab	-6984
▁cre	-6985
▁hin	-6986
▁rid	-6987
▁spy	-6988
0,000	-6989
amond	-6990
chers	-6991
igent	-6992
rison	-6993
▁Anah	-6994
▁Ebed	-6995
▁Pent	-6996
▁Port	-6997
▁Rico	-6998
▁Test	-6999
▁Weda	-7000
▁Whom	-7001
▁bath	-7002
▁canc	-7003
▁cows	-7004
▁enab	-7005
▁jack	-7006
▁klay	-7007
▁lies	-7008
▁rout	-7009
▁suit	-7010
▁thin	-7011
▁wash	-7012
▁yard	-7013
covers	-7014
idonia	-7015
▁Death	-7016
▁Dedan	-7017
▁Hanan	-7018
▁Hanun	-7019
▁Harim	-7020
▁Horeb	-7021
▁Jabin	-7022
▁Judge	-7023
▁Kenaz	-7024
▁Maker	-7025
▁Meshe	-7026
▁Sadly	-7027
▁Trans	-7028
▁Zobah	-7029
▁anoin	-7030
▁burst	-7031
▁tells	-7032
acherib	-7033
▁George	-7034
▁Kidron	-7035
▁Lakish	-7036
▁Lamech	-7037
▁Mosaic	-7038
▁Paddan	-7039
▁Perizz	-7040
▁Puerto	-7041
▁Riblah	-7042
▁Shafan	-7043
▁Strong	-7044
▁Timnah	-7045
▁career	-7046
▁dearly	-7047
▁gentol	-7048
▁immigr	-7049
▁offend	-7050
▁presum	-7051
▁region	-7052
▁remote	-7053
▁rolled	-7054
▁scroll	-7055
▁secure	-7056
▁towers	-7057
▁uphold	-7058
▁youths	-7059
▁Apollos	-7060
▁Eliphaz	-7061
▁Nothing	-7062
▁Obadaya	-7063
▁elderly	-7064
▁factors	-7065
▁fitting	-7066
▁introdu	-7067
▁pushing	-7068
▁quietly	-7069
▁Assembly	-7070
▁Brooklyn	-7071
▁Likewise	-7072
▁adultery	-7073
▁dealings	-7074
▁district	-7075
▁likewise	-7076
▁proclaim	-7077
▁rejected	-7078
▁searched	-7079
▁Israelite	-7080
▁Masidonia	-7081
▁Zephaniah	-7082
▁acknowled	-7083
▁breathing	-7084
▁footsteps	-7085
▁rebellion	-7086
▁responded	-7087
▁seriously	-7088
▁undergone	-7089
▁journeying	-7090
▁Sennacherib	-7091
▁outstretched	-7092
HO	-7093
IA	-7094
lf	-7095
▁z	-7096
.”“	-7097
Jud	-7098
ays	-7099
had	-7100
nan	-7101
ptu	-7102
ule	-7103
▁97	-7104
▁Ta	-7105
Amen	-7106
Just	-7107
Okay	-7108
aeus	-7109
agon	-7110
area	-7111
atak	-7112
aved	-7113
ball	-7114
bear	-7115
egid	-7116
hoth	-7117
icks	-7118
izim	-7119
ners	-7120
oham	-7121
oria	-7122
unah	-7123
unna	-7124
wind	-7125
▁Act	-7126
▁Aij	-7127
▁Arp	-7128
▁Bes	-7129
▁Gog	-7130
▁Hav	-7131
▁Jim	-7132
▁Rob	-7133
▁Zur	-7134
▁ced	-7135
▁due	-7136
▁obl	-7137
▁sup	-7138
▁wit	-7139
anean	-7140
araim	-7141
eless	-7142
iterr	-7143
ittim	-7144
ively	-7145
▁1950	-7146
▁2014	-7147
▁Beor	-7148
▁Dead	-7149
▁Euph	-7150
▁Gosp	-7151
▁Jael	-7152
▁Last	-7153
▁Sadd	-7154
▁Soon	-7155
▁Succ	-7156
▁Talk	-7157
▁cool	-7158
▁cups	-7159
▁emot	-7160
▁jita	-7161
▁rein	-7162
ercial	-7163
▁Grace	-7164
▁Jerah	-7165
▁Makir	-7166
▁Megid	-7167
▁Prisc	-7168
▁Shema	-7169
▁Zorah	-7170
▁apple	-7171
▁bikom	-7172
▁calls	-7173
▁forms	-7174
▁manif	-7175
▁mirac	-7176
▁moral	-7177
▁overs	-7178
▁pafet	-7179
▁phone	-7180
▁shape	-7181
▁solid	-7182
▁tears	-7183
▁yonga	-7184
cutting	-7185
working	-7186
▁Achish	-7187
▁Hanani	-7188
▁Kedesh	-7189
▁Making	-7190
▁Rechab	-7191
▁assemb	-7192
▁cedars	-7193
▁clergy	-7194
▁crowns	-7195
▁engage	-7196
▁gladly	-7197
▁helmet	-7198
▁highly	-7199
▁humbly	-7200
▁indeed	-7201
▁karata	-7202
▁listed	-7203
▁lowest	-7204
▁masses	-7205
▁method	-7206
▁plates	-7207
▁render	-7208
▁scales	-7209
▁thrill	-7210
▁warnin	-7211
▁Atalaya	-7212
▁Explain	-7213
▁Ithamar	-7214
▁Meshach	-7215
▁Parents	-7216
▁Sadduce	-7217
▁Student	-7218
▁Without	-7219
▁bearing	-7220
▁dangers	-7221
▁forcing	-7222
▁insight	-7223
▁jackals	-7224
▁playing	-7225
▁readily	-7226
▁recalls	-7227
▁replied	-7228
▁tricked	-7229
▁weapons	-7230
▁Mediterr	-7231
▁Shadrach	-7232
▁bringing	-7233
▁coloured	-7234
▁delicate	-7235
▁draining	-7236
▁emotions	-7237
▁familiar	-7238
▁identify	-7239
▁imprison	-7240
▁millions	-7241
▁obedient	-7242
▁persever	-7243
▁stopping	-7244
▁wounding	-7245
▁Cornelius	-7246
▁Euphrates	-7247
▁Hadadezer	-7248
▁accepting	-7249
▁associate	-7250
▁captivity	-7251
▁committed	-7252
▁describes	-7253
▁emotional	-7254
▁evidently	-7255
▁forgiving	-7256
▁honouring	-7257
▁obedience	-7258
▁overtaken	-7259
▁pressures	-7260
▁uncertain	-7261
▁Babylonian	-7262
▁commercial	-7263
▁employment	-7264
▁fellowship	-7265
▁acknowledge	-7266
▁overwhelmed	-7267
▁accomplished	-7268
▁contribution	-7269
▁imperfection	-7270
▁Mediterranean	-7271
.“	-7272
EN	-7273
fo	-7274
ti	-7275
ux	-7276
ym	-7277
acy	-7278
bal	-7279
ida	-7280
oad	-7281
oza	-7282
ran	-7283
sen	-7284
tem	-7285
tor	-7286
▁Uz	-7287
▁WE	-7288
▁ec	-7289
▁iv	-7290
Papa	-7291
Paul	-7292
alen	-7293
amah	-7294
eder	-7295
elix	-7296
illa	-7297
imon	-7298
isef	-7299
ober	-7300
pher	-7301
ront	-7302
went	-7303
▁136	-7304
▁300	-7305
▁Boz	-7306
▁Che	-7307
▁End	-7308
▁Jek	-7309
▁Jub	-7310
▁Nim	-7311
▁aid	-7312
▁bom	-7313
▁deg	-7314
▁gat	-7315
▁hyp	-7316
▁inf	-7317
▁owl	-7318
Today	-7319
achin	-7320
adium	-7321
aliel	-7322
eenth	-7323
emuel	-7324
going	-7325
ician	-7326
ifies	-7327
ildad	-7328
inoam	-7329
irite	-7330
▁1956	-7331
▁Cush	-7332
▁Ezer	-7333
▁Hagg	-7334
▁Hass	-7335
▁Joah	-7336
▁Mill	-7337
▁Prop	-7338
▁Seth	-7339
▁Sukk	-7340
▁Zalm	-7341
▁Zare	-7342
▁Zipp	-7343
▁Zoar	-7344
▁audi	-7345
▁bank	-7346
▁bury	-7347
▁comb	-7348
▁deer	-7349
▁gall	-7350
▁mach	-7351
▁sina	-7352
▁sixt	-7353
▁sust	-7354
▁vows	-7355
lation	-7356
▁Debir	-7357
▁Dibon	-7358
▁Felix	-7359
▁Flood	-7360
▁Itama	-7361
▁Jahaz	-7362
▁Jeiel	-7363
▁Jerim	-7364
▁Paran	-7365
▁Refah	-7366
▁Serve	-7367
▁Shaul	-7368
▁Study	-7369
▁Zazes	-7370
▁Zebah	-7371
▁angle	-7372
▁conqu	-7373
▁drops	-7374
▁harsh	-7375
▁ivory	-7376
▁necks	-7377
▁oblig	-7378
▁stead	-7379
▁stiff	-7380
▁weigh	-7381
angeliz	-7382
▁Bilhah	-7383
▁Efesus	-7384
▁Heaven	-7385
▁Machir	-7386
▁Nahash	-7387
▁Really	-7388
▁Robert	-7389
▁Shelem	-7390
▁Sorrow	-7391
▁angles	-7392
▁circle	-7393
▁copies	-7394
▁copper	-7395
▁deeper	-7396
▁easily	-7397
▁either	-7398
▁fishes	-7399
▁killed	-7400
▁naming	-7401
▁promin	-7402
▁refers	-7403
▁sandal	-7404
▁submit	-7405
▁tender	-7406
▁unique	-7407
▁verses	-7408
▁viewed	-7409
▁winter	-7410
▁Adullam	-7411
▁Jozabad	-7412
▁Looking	-7413
▁Megiddo	-7414
▁Obadiah	-7415
▁Promise	-7416
▁content	-7417
▁network	-7418
▁rolling	-7419
▁twelfth	-7420
▁wedding	-7421
▁Jebusite	-7422
▁Nazirite	-7423
▁Zalmunna	-7424
▁anointin	-7425
▁bilivers	-7426
▁comments	-7427
▁confront	-7428
▁firewood	-7429
▁hammered	-7430
▁hangings	-7431
▁lovingly	-7432
▁national	-7433
▁ordering	-7434
▁particip	-7435
▁previous	-7436
▁reaching	-7437
▁Canaanite	-7438
▁Nethaniah	-7439
▁abandoned	-7440
▁excellent	-7441
▁execution	-7442
▁occasions	-7443
▁presented	-7444
▁published	-7445
▁treatment	-7446
▁Theocratic	-7447
▁influenced	-7448
▁repentance	-7449
▁statements	-7450
▁threatened	-7451
▁weaknesses	-7452
▁pomegranate	-7453
▁significant	-7454
▁difficulties	-7455
▁faithfulness	-7456
;)	-7457
US	-7458
bo	-7459
de	-7460
oi	-7461
iam	-7462
iok	-7463
ker	-7464
ler	-7465
lex	-7466
lus	-7467
pan	-7468
tee	-7469
vin	-7470
▁90	-7471
▁Ir	-7472
allu	-7473
amre	-7474
avan	-7475
eryl	-7476
etch	-7477
mave	-7478
meel	-7479
olog	-7480
▁Ath	-7481
▁FOR	-7482
▁Gam	-7483
▁Him	-7484
▁Mef	-7485
▁Mig	-7486
▁Nek	-7487
▁ONE	-7488
▁Oph	-7489
▁Pel	-7490
▁Zin	-7491
▁exh	-7492
▁inj	-7493
▁mad	-7494
▁upb	-7495
Pesin	-7496
addai	-7497
agers	-7498
almon	-7499
asant	-7500
asses	-7501
ecost	-7502
hered	-7503
ichri	-7504
innah	-7505
point	-7506
verse	-7507
▁Aust	-7508
▁Fool	-7509
▁Gaal	-7510
▁Geba	-7511
▁brow	-7512
▁fort	-7513
▁harm	-7514
▁purs	-7515
▁rape	-7516
▁sail	-7517
Nobody	-7518
achers	-7519
ballat	-7520
erness	-7521
etrius	-7522
hophel	-7523
orough	-7524
strong	-7525
▁5,000	-7526
▁Akish	-7527
▁Anoda	-7528
▁Eliel	-7529
▁Mamre	-7530
▁Mushi	-7531
▁Rezin	-7532
▁Steph	-7533
▁Stren	-7534
▁advis	-7535
▁analy	-7536
▁built	-7537
▁creep	-7538
▁dwell	-7539
▁fetch	-7540
▁guest	-7541
▁hotel	-7542
▁indic	-7543
▁labor	-7544
▁locks	-7545
▁shave	-7546
▁simpl	-7547
▁slope	-7548
▁stain	-7549
▁subst	-7550
Shemesh	-7551
nothing	-7552
ossible	-7553
▁Antiok	-7554
▁Meshak	-7555
▁Seraya	-7556
▁bathed	-7557
▁burden	-7558
▁colour	-7559
▁demand	-7560
▁doubol	-7561
▁escort	-7562
▁hypocr	-7563
▁joyful	-7564
▁mental	-7565
▁object	-7566
▁offers	-7567
▁prefer	-7568
▁recent	-7569
▁stayed	-7570
▁symbol	-7571
▁traits	-7572
▁veiled	-7573
▁warned	-7574
▁Araunah	-7575
▁Charles	-7576
▁Foolish	-7577
▁Jeroham	-7578
▁Netanel	-7579
▁October	-7580
▁Shidren	-7581
▁carried	-7582
▁closely	-7583
▁diamond	-7584
▁divorce	-7585
▁exactly	-7586
▁forming	-7587
▁general	-7588
▁intense	-7589
▁machine	-7590
▁mothers	-7591
▁nearest	-7592
▁reached	-7593
▁refresh	-7594
▁resolve	-7595
▁teaches	-7596
▁usually	-7597
▁worldly	-7598
▁Abednego	-7599
▁Anathoth	-7600
▁Children	-7601
▁audience	-7602
▁balanced	-7603
▁conflict	-7604
▁critical	-7605
▁declared	-7606
▁diseased	-7607
▁generous	-7608
▁opinions	-7609
▁released	-7610
▁uprights	-7611
▁Certainly	-7612
▁Demetrius	-7613
▁Jebusites	-7614
▁Jerahmeel	-7615
▁Pentecost	-7616
▁Sadducees	-7617
▁Sanballat	-7618
▁collector	-7619
▁commanded	-7620
▁discovery	-7621
▁discussed	-7622
▁financial	-7623
▁fourteent	-7624
▁impressed	-7625
▁presumptu	-7626
▁reference	-7627
▁reflected	-7628
▁repentant	-7629
▁secretary	-7630
▁sturbones	-7631
▁Ahithophel	-7632
▁Department	-7633
▁commission	-7634
▁illustrate	-7635
▁wilderness	-7636
▁Translation	-7637
▁differences	-7638
▁discouraged	-7639
▁unbelieving	-7640
▁particularly	-7641
▁requirements	-7642
▁successfully	-7643
▁international	-7644
▁strengthening	-7645
:)	-7646
En	-7647
acc	-7648
bar	-7649
bas	-7650
bur	-7651
che	-7652
idd	-7653
lee	-7654
lot	-7655
ndy	-7656
oko	-7657
ots	-7658
rol	-7659
she	-7660
uge	-7661
umm	-7662
▁54	-7663
▁62	-7664
▁Au	-7665
▁HE	-7666
▁IS	-7667
▁Ja	-7668
16.0	-7669
akeh	-7670
alam	-7671
elle	-7672
farm	-7673
gest	-7674
happ	-7675
ieve	-7676
inim	-7677
odia	-7678
otre	-7679
rary	-7680
ssop	-7681
uing	-7682
▁133	-7683
▁Akk	-7684
▁Bre	-7685
▁Car	-7686
▁Din	-7687
▁Hum	-7688
▁Joi	-7689
▁Kim	-7690
▁Kir	-7691
▁Mat	-7692
▁Pak	-7693
▁Ped	-7694
▁Sak	-7695
▁Tro	-7696
▁Zef	-7697
▁bye	-7698
▁gaz	-7699
▁ign	-7700
▁mag	-7701
▁rad	-7702
▁ren	-7703
▁row	-7704
▁toe	-7705
arrow	-7706
ashti	-7707
betta	-7708
ishak	-7709
ishan	-7710
istan	-7711
lying	-7712
raine	-7713
▁1940	-7714
▁1949	-7715
▁1952	-7716
▁Arch	-7717
▁Bran	-7718
▁Four	-7719
▁Kain	-7720
▁Lear	-7721
▁Mish	-7722
▁Mole	-7723
▁Near	-7724
▁Taan	-7725
▁Were	-7726
▁drew	-7727
▁fell	-7728
▁obst	-7729
▁page	-7730
▁pond	-7731
▁sens	-7732
arding	-7733
eption	-7734
footed	-7735
ishael	-7736
ources	-7737
pected	-7738
vation	-7739
▁Anton	-7740
▁Benef	-7741
▁India	-7742
▁Jeush	-7743
▁Mikal	-7744
▁Shere	-7745
▁Wendy	-7746
▁beryl	-7747
▁domin	-7748
▁forth	-7749
▁guilt	-7750
▁inhab	-7751
▁maybe	-7752
▁nails	-7753
▁relax	-7754
▁restr	-7755
▁selet	-7756
▁shako	-7757
▁tests	-7758
▁worms	-7759
anguage	-7760
erstand	-7761
iboshet	-7762
married	-7763
mission	-7764
▁Anyone	-7765
▁August	-7766
▁Baanah	-7767
▁Commit	-7768
▁Differ	-7769
▁Diotre	-7770
▁Gospel	-7771
▁Greeks	-7772
▁Russia	-7773
▁Sukkot	-7774
▁Thomas	-7775
▁Wicked	-7776
▁causes	-7777
▁chosen	-7778
▁expand	-7779
▁hyssop	-7780
▁prompt	-7781
▁refuse	-7782
▁review	-7783
▁shains	-7784
▁shared	-7785
▁talent	-7786
▁throat	-7787
▁wander	-7788
▁wrongs	-7789
▁Aijalon	-7790
▁Amorite	-7791
▁January	-7792
▁Meribah	-7793
▁Mishael	-7794
▁Seraiah	-7795
▁Shishak	-7796
▁Zeruaya	-7797
▁awaking	-7798
▁balance	-7799
▁baskets	-7800
▁blowing	-7801
▁clothes	-7802
▁conclus	-7803
▁decades	-7804
▁details	-7805
▁empower	-7806
▁endured	-7807
▁farmers	-7808
▁fingers	-7809
▁granted	-7810
▁growing	-7811
▁helpful	-7812
▁impulse	-7813
▁painful	-7814
▁pattern	-7815
▁rightly	-7816
▁routine	-7817
▁secrets	-7818
▁travell	-7819
▁treaten	-7820
Jerusalem	-7821
ification	-7822
▁Caesarea	-7823
▁Nethinim	-7824
▁Pakistan	-7825
▁accident	-7826
▁discreet	-7827
▁grooming	-7828
▁polished	-7829
▁reaction	-7830
▁uprooted	-7831
▁visiting	-7832
▁visitors	-7833
▁Ahimelech	-7834
▁Ammonites	-7835
▁Sovereign	-7836
▁arguments	-7837
▁benefited	-7838
▁designing	-7839
▁developed	-7840
▁donations	-7841
▁fifteenth	-7842
▁fulfilled	-7843
▁officials	-7844
▁transform	-7845
▁treasures	-7846
▁willingly	-7847
▁wrongdoer	-7848
▁acceptable	-7849
▁recreation	-7850
▁reflecting	-7851
▁satisfying	-7852
▁translated	-7853
▁worshipper	-7854
▁assignments	-7855
▁conventions	-7856
▁expressions	-7857
▁immediately	-7858
▁instructions	-7859
▁consideration	-7860
▁illustrations	-7861
▁organizations	-7862
,6	-7863
0.	-7864
AH	-7865
IM	-7866
OL	-7867
OU	-7868
ui	-7869
we	-7870
Get	-7871
ING	-7872
Job	-7873
anc	-7874
ban	-7875
bir	-7876
cah	-7877
lel	-7878
olo	-7879
ray	-7880
sho	-7881
taz	-7882
thn	-7883
ula	-7884
▁75	-7885
▁Gi	-7886
▁ok	-7887
,500	-7888
From	-7889
aaya	-7890
aded	-7891
ancy	-7892
arai	-7893
armi	-7894
atia	-7895
elly	-7896
enes	-7897
icia	-7898
ieth	-7899
ilet	-7900
irah	-7901
mond	-7902
ofel	-7903
omes	-7904
opes	-7905
pond	-7906
pper	-7907
rave	-7908
rete	-7909
▁Eun	-7910
▁Hen	-7911
▁Lat	-7912
▁Ten	-7913
▁ess	-7914
▁fug	-7915
▁roe	-7916
aself	-7917
birth	-7918
happy	-7919
igned	-7920
innui	-7921
orted	-7922
shine	-7923
uthun	-7924
▁Azaz	-7925
▁Elie	-7926
▁Find	-7927
▁Hope	-7928
▁List	-7929
▁Long	-7930
▁MATT	-7931
▁Mass	-7932
▁Ones	-7933
▁Rose	-7934
▁Shef	-7935
▁Uzzi	-7936
▁amaz	-7937
▁corn	-7938
▁glob	-7939
▁imag	-7940
▁impl	-7941
▁kake	-7942
▁koat	-7943
▁leng	-7944
▁lily	-7945
▁park	-7946
▁reli	-7947
▁rend	-7948
▁spit	-7949
▁tens	-7950
▁toes	-7951
▁virt	-7952
alenge	-7953
ceding	-7954
itudes	-7955
urally	-7956
vision	-7957
▁Dagon	-7958
▁Doing	-7959
▁Jared	-7960
▁Jerub	-7961
▁Kevin	-7962
▁Kween	-7963
▁Matan	-7964
▁Medes	-7965
▁Rehum	-7966
▁Reuel	-7967
▁absol	-7968
▁chain	-7969
▁climb	-7970
▁coats	-7971
▁funds	-7972
▁gradu	-7973
▁hopes	-7974
▁moves	-7975
▁ninty	-7976
▁nurse	-7977
▁roast	-7978
▁sight	-7979
▁stumb	-7980
▁talks	-7981
▁tract	-7982
Evritin	-7983
etition	-7984
selfish	-7985
▁Binnui	-7986
▁Branch	-7987
▁Eunice	-7988
▁Galati	-7989
▁Kishon	-7990
▁Mahala	-7991
▁Shunem	-7992
▁burial	-7993
▁dragon	-7994
▁errors	-7995
▁hating	-7996
▁impart	-7997
▁moment	-7998
▁nature	-7999
▁nights	-8000
▁passed	-8001
▁poizin	-8002
▁relate	-8003
▁resent	-8004
▁shrine	-8005
▁sinned	-8006
▁skirts	-8007
▁spaces	-8008
▁twelft	-8009
▁Delilah	-8010
▁Elimele	-8011
▁Jedaiah	-8012
▁Jubilee	-8013
▁Modesty	-8014
▁Readers	-8015
▁Succoth	-8016
▁advance	-8017
▁applies	-8018
▁cooking	-8019
▁equally	-8020
▁gardens	-8021
▁healthy	-8022
▁highway	-8023
▁islands	-8024
▁obeying	-8025
▁parting	-8026
▁passeng	-8027
▁pretend	-8028
▁removed	-8029
▁smaller	-8030
▁synagog	-8031
▁trading	-8032
▁trusted	-8033
▁varanda	-8034
▁victory	-8035
▁workman	-8036
▁Ahimelek	-8037
▁Ahitofel	-8038
▁Jeduthun	-8039
▁Language	-8040
▁describe	-8041
▁projects	-8042
▁reminded	-8043
▁revealed	-8044
▁shalenge	-8045
▁supports	-8046
▁townsmen	-8047
▁Jehohanan	-8048
▁Preaching	-8049
▁advantage	-8050
▁destroyed	-8051
▁listening	-8052
▁neighbors	-8053
▁overcomes	-8054
▁preachers	-8055
▁preceding	-8056
▁respected	-8057
▁seventeen	-8058
▁unselfish	-8059
▁Diotrephes	-8060
▁assemblies	-8061
▁beneficial	-8062
▁controlled	-8063
▁exercising	-8064
▁impossible	-8065
▁kommanding	-8066
▁maintained	-8067
▁recognized	-8068
▁successful	-8069
▁maintaining	-8070
Am	-8071
At	-8072
DA	-8073
ES	-8074
mi	-8075
vi	-8076
Doz	-8077
bit	-8078
boa	-8079
bok	-8080
bor	-8081
cas	-8082
dem	-8083
ets	-8084
god	-8085
ibl	-8086
lif	-8087
nim	-8088
upp	-8089
zib	-8090
▁Lo	-8091
▁Oh	-8092
▁Uk	-8093
▁Zu	-8094
17.0	-8095
ahem	-8096
alah	-8097
athy	-8098
ator	-8099
awol	-8100
cher	-8101
cket	-8102
empl	-8103
ican	-8104
ihud	-8105
mark	-8106
miel	-8107
miss	-8108
nect	-8109
nors	-8110
rene	-8111
taol	-8112
uish	-8113
ware	-8114
▁Bah	-8115
▁HEB	-8116
▁Het	-8117
▁Hon	-8118
▁Jar	-8119
▁Rel	-8120
▁Tok	-8121
▁Zel	-8122
▁jas	-8123
▁jun	-8124
▁kol	-8125
▁pag	-8126
▁pus	-8127
▁urg	-8128
▁wal	-8129
ander	-8130
areah	-8131
elled	-8132
iform	-8133
inner	-8134
razil	-8135
shock	-8136
storm	-8137
▁2011	-8138
▁2013	-8139
▁Adar	-8140
▁Alex	-8141
▁Arim	-8142
▁Elon	-8143
▁Fred	-8144
▁Hear	-8145
▁Horm	-8146
▁Mare	-8147
▁Much	-8148
▁Odas	-8149
▁Onan	-8150
▁Pont	-8151
▁Poor	-8152
▁Sund	-8153
▁Ziph	-8154
▁adop	-8155
▁arri	-8156
▁bags	-8157
▁coin	-8158
▁excl	-8159
▁flee	-8160
▁hind	-8161
▁jail	-8162
▁lawy	-8163
▁lazy	-8164
▁mere	-8165
▁pige	-8166
▁porn	-8167
▁seer	-8168
▁stem	-8169
▁stir	-8170
▁unex	-8171
Jearim	-8172
akerib	-8173
akings	-8174
lished	-8175
ouples	-8176
▁Akkub	-8177
▁Gerar	-8178
▁Jehon	-8179
▁Learn	-8180
▁Zebad	-8181
▁abund	-8182
▁camel	-8183
▁crack	-8184
▁edges	-8185
▁extre	-8186
▁fawol	-8187
▁lists	-8188
▁looks	-8189
▁ontop	-8190
▁raven	-8191
▁shock	-8192
▁stood	-8193
▁taxes	-8194
▁union	-8195
▁waved	-8196
Solomon	-8197
amental	-8198
athites	-8199
kizedek	-8200
looking	-8201
▁Anatot	-8202
▁Azmave	-8203
▁Bildad	-8204
▁Bozrah	-8205
▁Brazil	-8206
▁Gilboa	-8207
▁Gloria	-8208
▁Golden	-8209
▁Hinnom	-8210
▁Kareah	-8211
▁Michal	-8212
▁Oholib	-8213
▁Seeing	-8214
▁Sharon	-8215
▁Shereb	-8216
▁Shobal	-8217
▁active	-8218
▁allows	-8219
▁apples	-8220
▁bottle	-8221
▁crimes	-8222
▁driver	-8223
▁hammer	-8224
▁harder	-8225
▁insect	-8226
▁interp	-8227
▁jasper	-8228
▁motive	-8229
▁pastor	-8230
▁prepar	-8231
▁quoted	-8232
▁silent	-8233
▁tables	-8234
▁unjust	-8235
▁values	-8236
▁writer	-8237
ironment	-8238
ishaddai	-8239
iversity	-8240
▁Antonio	-8241
▁Austria	-8242
▁Benefit	-8243
▁Eshtaol	-8244
▁Menahem	-8245
▁Shammah	-8246
▁analyze	-8247
▁confirm	-8248
▁evident	-8249
▁govnors	-8250
▁oppress	-8251
▁process	-8252
▁records	-8253
▁springs	-8254
▁treated	-8255
▁Anywhere	-8256
▁Assyrian	-8257
▁Athaliah	-8258
▁Caesaria	-8259
▁Gamaliel	-8260
▁Hittites	-8261
▁announce	-8262
▁attempts	-8263
▁believed	-8264
▁choosing	-8265
▁directly	-8266
▁fugitive	-8267
▁inclined	-8268
▁manifest	-8269
▁occurred	-8270
▁perceive	-8271
▁praising	-8272
▁properly	-8273
▁shepherd	-8274
▁slipping	-8275
▁strongly	-8276
▁weighted	-8277
angelizers	-8278
▁Jehozadak	-8279
▁Jephunneh	-8280
▁Mahalalel	-8281
▁Priscilla	-8282
▁Worldwide	-8283
▁assurance	-8284
▁continues	-8285
▁dangerous	-8286
▁earthwork	-8287
▁exclusive	-8288
▁kondishon	-8289
▁korreshon	-8290
▁principal	-8291
▁producing	-8292
▁rulership	-8293
▁suggested	-8294
▁Mefiboshet	-8295
▁Reubenites	-8296
▁Sennakerib	-8297
▁companions	-8298
▁constantly	-8299
▁pornograph	-8300
▁repeatedly	-8301
▁separating	-8302
▁temptation	-8303
▁unexpected	-8304
▁volunteers	-8305
▁Furthermore	-8306
▁contributed	-8307
▁environment	-8308
▁established	-8309
▁fundamental	-8310
▁headquarters	-8311
▁undertakings	-8312
▁determination	-8313
,4	-8314
OP	-8315
Hor	-8316
abi	-8317
ado	-8318
gar	-8319
ham	-8320
ibo	-8321
kab	-8322
lai	-8323
lok	-8324
mod	-8325
oni	-8326
osy	-8327
pot	-8328
sah	-8329
tax	-8330
▁73	-8331
▁LI	-8332
▁oy	-8333
Look	-8334
airs	-8335
arim	-8336
char	-8337
eria	-8338
fare	-8339
iast	-8340
icea	-8341
idan	-8342
ient	-8343
otes	-8344
ubal	-8345
vaim	-8346
▁103	-8347
▁Age	-8348
▁Ans	-8349
▁Aqu	-8350
▁Dew	-8351
▁Fif	-8352
▁Gab	-8353
▁Hos	-8354
▁Lyd	-8355
▁Mol	-8356
▁Nik	-8357
▁PRO	-8358
▁Teb	-8359
▁Tel	-8360
▁Tem	-8361
▁Tib	-8362
▁YOU	-8363
▁cit	-8364
▁cym	-8365
▁cyp	-8366
▁log	-8367
▁sik	-8368
Horon	-8369
anael	-8370
anged	-8371
aring	-8372
ataya	-8373
atiah	-8374
avery	-8375
emble	-8376
ephib	-8377
erxes	-8378
icles	-8379
iders	-8380
kedah	-8381
osity	-8382
prosy	-8383
ummim	-8384
urely	-8385
▁Dark	-8386
▁Gera	-8387
▁IUDs	-8388
▁JEHO	-8389
▁Kind	-8390
▁Laod	-8391
▁Mall	-8392
▁Maon	-8393
▁Meet	-8394
▁Nath	-8395
▁Save	-8396
▁Stef	-8397
▁Talm	-8398
▁alco	-8399
▁ball	-8400
▁bars	-8401
▁beds	-8402
▁bomb	-8403
▁card	-8404
▁caut	-8405
▁duty	-8406
▁ensl	-8407
▁lift	-8408
▁oper	-8409
▁sake	-8410
▁task	-8411
▁unre	-8412
▁vast	-8413
▁vind	-8414
jearim	-8415
lessly	-8416
nessed	-8417
ounter	-8418
▁2,000	-8419
▁4,000	-8420
▁Abdon	-8421
▁Artax	-8422
▁Baals	-8423
▁Enosh	-8424
▁Feder	-8425
▁Gezer	-8426
▁Ittai	-8427
▁Kenan	-8428
▁Marta	-8429
▁Nabot	-8430
▁Sheph	-8431
▁Sojas	-8432
▁Troas	-8433
▁Tubal	-8434
▁acted	-8435
▁alert	-8436
▁color	-8437
▁deeds	-8438
▁exile	-8439
▁fears	-8440
▁giver	-8441
▁glass	-8442
▁grown	-8443
▁lying	-8444
▁newsp	-8445
▁oklok	-8446
▁ought	-8447
▁oyibo	-8448
▁paint	-8449
▁refle	-8450
▁repro	-8451
▁ripot	-8452
▁schol	-8453
▁sheba	-8454
▁speed	-8455
▁supav	-8456
▁valid	-8457
lesiast	-8458
▁24,000	-8459
▁Aquila	-8460
▁Chebar	-8461
▁Dishon	-8462
▁Euodia	-8463
▁Mephib	-8464
▁Potter	-8465
▁Public	-8466
▁Sadusi	-8467
▁Sister	-8468
▁Surely	-8469
▁Tobaya	-8470
▁Unlike	-8471
▁Wahala	-8472
▁admits	-8473
▁degree	-8474
▁doubts	-8475
▁gained	-8476
▁idolat	-8477
▁loudly	-8478
▁perman	-8479
▁popula	-8480
▁preser	-8481
▁season	-8482
▁sought	-8483
▁walked	-8484
▁waving	-8485
▁Abiezer	-8486
▁Amaraya	-8487
▁Jonadab	-8488
▁Kadmiel	-8489
▁Library	-8490
▁Nahshon	-8491
▁Setting	-8492
▁Ukraine	-8493
▁cruelly	-8494
▁cypress	-8495
▁dealing	-8496
▁declare	-8497
▁farther	-8498
▁gazelle	-8499
▁honesty	-8500
▁jumping	-8501
▁leprosy	-8502
▁lighted	-8503
▁pointed	-8504
▁portion	-8505
▁princes	-8506
▁pursuit	-8507
▁reports	-8508
▁reveals	-8509
▁sailing	-8510
▁settled	-8511
▁sorrows	-8512
▁speaker	-8513
▁steward	-8514
▁unaself	-8515
▁uniform	-8516
▁Federico	-8517
▁Laodicea	-8518
▁Makkedah	-8519
▁Malkijah	-8520
▁Matanaya	-8521
▁Peninnah	-8522
▁attacker	-8523
▁bitterly	-8524
▁effected	-8525
▁eleventh	-8526
▁oversabi	-8527
▁publicly	-8528
▁recently	-8529
▁referred	-8530
▁resolved	-8531
▁security	-8532
▁spending	-8533
▁teenager	-8534
ifications	-8535
▁Committee	-8536
▁Ethiopian	-8537
▁Galatians	-8538
▁Hashabaya	-8539
▁Jerubbaal	-8540
▁Nathanael	-8541
▁displayed	-8542
▁encounter	-8543
▁establish	-8544
▁gradually	-8545
▁ministers	-8546
▁ploughing	-8547
▁privately	-8548
▁prophetic	-8549
▁resources	-8550
▁specially	-8551
▁substance	-8552
▁synagogue	-8553
▁underwent	-8554
▁witnessed	-8555
▁Artaxerxes	-8556
▁Ecclesiast	-8557
▁Kohathites	-8558
▁Melkizedek	-8559
▁admonition	-8560
▁associates	-8561
▁childbirth	-8562
▁conclusion	-8563
▁kollectors	-8564
▁privileged	-8565
▁university	-8566
▁wrongdoers	-8567
▁adjustments	-8568
▁appreciated	-8569
▁brotherhood	-8570
▁considering	-8571
▁cultivating	-8572
▁emotionally	-8573
▁foolishness	-8574
▁pornography	-8575
▁possessions	-8576
▁Christianity	-8577
▁Mephibosheth	-8578
▁wholehearted	-8579
▁compassionate	-8580
):	-8581
,7	-8582
AR	-8583
fa	-8584
ye	-8585
yx	-8586
aun	-8587
awi	-8588
ees	-8589
gad	-8590
ieh	-8591
iza	-8592
kar	-8593
mas	-8594
nec	-8595
nty	-8596
off	-8597
onc	-8598
rat	-8599
reb	-8600
rei	-8601
rid	-8602
uri	-8603
▁59	-8604
▁64	-8605
▁72	-8606
▁DE	-8607
▁OF	-8608
Some	-8609
Take	-8610
adah	-8611
arel	-8612
avin	-8613
chil	-8614
cies	-8615
hail	-8616
holy	-8617
icus	-8618
many	-8619
much	-8620
rich	-8621
rior	-8622
rive	-8623
shai	-8624
stra	-8625
tops	-8626
utun	-8627
▁135	-8628
▁600	-8629
▁Bas	-8630
▁COR	-8631
▁Cai	-8632
▁Cap	-8633
▁Jef	-8634
▁Jul	-8635
▁Luz	-8636
▁Nis	-8637
▁Nob	-8638
▁Ple	-8639
▁Rud	-8640
▁Sok	-8641
▁Tom	-8642
▁WHE	-8643
▁Zif	-8644
▁Zil	-8645
▁aff	-8646
▁cra	-8647
▁lap	-8648
▁mur	-8649
▁nun	-8650
▁ost	-8651
After	-8652
Judah	-8653
aches	-8654
aphas	-8655
arant	-8656
ators	-8657
cribe	-8658
erous	-8659
ibeon	-8660
icine	-8661
kweke	-8662
oenai	-8663
rease	-8664
rians	-8665
umber	-8666
▁1937	-8667
▁1941	-8668
▁1943	-8669
▁1954	-8670
▁2017	-8671
▁Amer	-8672
▁Assh	-8673
▁Ataz	-8674
▁Azek	-8675
▁Bats	-8676
▁Bukk	-8677
▁East	-8678
▁Ebal	-8679
▁Etam	-8680
▁Fire	-8681
▁Geza	-8682
▁Girg	-8683
▁Heth	-8684
▁Issh	-8685
▁Jarm	-8686
▁Kush	-8687
▁Oreb	-8688
▁Seek	-8689
▁Shin	-8690
▁Upon	-8691
▁Urim	-8692
▁Zoan	-8693
▁appe	-8694
▁barb	-8695
▁bill	-8696
▁buds	-8697
▁coop	-8698
▁curr	-8699
▁ease	-8700
▁eggs	-8701
▁expl	-8702
▁isol	-8703
▁lean	-8704
▁paid	-8705
▁rent	-8706
▁slap	-8707
▁tact	-8708
▁undo	-8709
▁vult	-8710
apters	-8711
comers	-8712
eltesh	-8713
ensive	-8714
ernaum	-8715
ersion	-8716
lesome	-8717
lifted	-8718
ntyche	-8719
seless	-8720
shakeh	-8721
unning	-8722
▁Arist	-8723
▁Bread	-8724
▁Dinah	-8725
▁Edrei	-8726
▁Ezion	-8727
▁Gavin	-8728
▁Gedor	-8729
▁Gomer	-8730
▁Jason	-8731
▁Jobab	-8732
▁Kapan	-8733
▁Melch	-8734
▁Plate	-8735
▁Syria	-8736
▁Woman	-8737
▁Zabad	-8738
▁Zabdi	-8739
▁aside	-8740
▁broke	-8741
▁dealt	-8742
▁disag	-8743
▁elect	-8744
▁invis	-8745
▁liber	-8746
▁memba	-8747
▁pagan	-8748
▁spoon	-8749
▁suppl	-8750
▁susid	-8751
▁tanks	-8752
▁uncle	-8753
▁vomit	-8754
bosheth	-8755
fearing	-8756
fulness	-8757
iminate	-8758
pective	-8759
ulously	-8760
▁Breast	-8761
▁Hormah	-8762
▁Intern	-8763
▁Island	-8764
▁Jabbok	-8765
▁Jedaya	-8766
▁Lystra	-8767
▁Malawi	-8768
▁Penuel	-8769
▁Pisgah	-8770
▁Psalms	-8771
▁Recall	-8772
▁Republ	-8773
▁Should	-8774
▁Sunday	-8775
▁Tobiah	-8776
▁Zibeon	-8777
▁Zilpah	-8778
▁Zippor	-8779
▁attain	-8780
▁beauti	-8781
▁beings	-8782
▁cancer	-8783
▁dishon	-8784
▁dispos	-8785
▁embarr	-8786
▁enable	-8787
▁firmly	-8788
▁folded	-8789
▁frustr	-8790
▁gallon	-8791
▁haught	-8792
▁konker	-8793
▁makers	-8794
▁merely	-8795
▁series	-8796
▁serves	-8797
▁thanks	-8798
▁twists	-8799
▁victim	-8800
▁weaken	-8801
▁welcom	-8802
children	-8803
▁Ahinoam	-8804
▁Amariah	-8805
▁Ammihud	-8806
▁Eliezer	-8807
▁Gadites	-8808
▁Galatia	-8809
▁Girgash	-8810
▁Havilah	-8811
▁Jedutun	-8812
▁compare	-8813
▁connect	-8814
▁devoted	-8815
▁drawing	-8816
▁earthqu	-8817
▁fishing	-8818
▁guarant	-8819
▁karpent	-8820
▁kidneys	-8821
▁majesty	-8822
▁marital	-8823
▁noticed	-8824
▁offense	-8825
▁praises	-8826
▁profesy	-8827
▁readers	-8828
▁slavery	-8829
▁surenda	-8830
▁Anything	-8831
▁Atazazes	-8832
▁Batsheba	-8833
▁Caiaphas	-8834
▁Colossae	-8835
▁Elioenai	-8836
▁Jefunneh	-8837
▁Kapanaum	-8838
▁Magdalin	-8839
▁Moabites	-8840
▁Syntyche	-8841
▁admitted	-8842
▁chariots	-8843
▁compared	-8844
▁contains	-8845
▁covenant	-8846
▁disobedi	-8847
▁engaging	-8848
▁extended	-8849
▁function	-8850
▁garments	-8851
▁holiness	-8852
▁idolatry	-8853
▁maturity	-8854
▁observes	-8855
▁overmuch	-8856
▁possibol	-8857
▁priority	-8858
▁resemble	-8859
▁Assyrians	-8860
▁Capernaum	-8861
▁Hashabiah	-8862
▁Jehonadab	-8863
▁Spiritual	-8864
▁addressed	-8865
▁commended	-8866
▁companion	-8867
▁delivered	-8868
▁earnestly	-8869
▁initially	-8870
▁interpret	-8871
▁motivated	-8872
▁newcomers	-8873
▁providing	-8874
▁remaining	-8875
▁rendering	-8876
elteshazzar	-8877
▁Chronicles	-8878
▁Ethiopians	-8879
▁Perizzites	-8880
▁associated	-8881
▁bitterness	-8882
▁conducting	-8883
▁foundation	-8884
▁hospitable	-8885
▁passengers	-8886
▁perfection	-8887
▁television	-8888
▁worshipped	-8889
▁Accordingly	-8890
▁commandment	-8891
▁consolation	-8892
▁faithfulnes	-8893
▁Evangelizers	-8894
▁acknowledged	-8895
▁presumptuous	-8896
▁qualifications	-8897
.5	-8898
70	-8899
Ar	-8900
El	-8901
He	-8902
lv	-8903
ara	-8904
ded	-8905
eur	-8906
igi	-8907
kah	-8908
lek	-8909
ode	-8910
orp	-8911
pet	-8912
rod	-8913
ura	-8914
vai	-8915
▁74	-8916
▁99	-8917
▁AS	-8918
▁Ib	-8919
▁ON	-8920
▁Ze	-8921
Asaf	-8922
Tell	-8923
aida	-8924
avel	-8925
bals	-8926
cked	-8927
diel	-8928
ffic	-8929
iehl	-8930
mele	-8931
mone	-8932
oles	-8933
osea	-8934
ouis	-8935
pata	-8936
rath	-8937
reen	-8938
umah	-8939
usel	-8940
utta	-8941
wife	-8942
▁112	-8943
▁146	-8944
▁Add	-8945
▁Ann	-8946
▁Ark	-8947
▁Feb	-8948
▁Hab	-8949
▁Ida	-8950
▁Its	-8951
▁Lah	-8952
▁Nec	-8953
▁Old	-8954
▁Six	-8955
▁Tol	-8956
▁Top	-8957
▁ach	-8958
▁hes	-8959
▁kra	-8960
▁lik	-8961
▁rac	-8962
▁tow	-8963
▁uns	-8964
alter	-8965
amean	-8966
amore	-8967
ataim	-8968
girls	-8969
icted	-8970
opard	-8971
orado	-8972
ortly	-8973
ossom	-8974
peror	-8975
rench	-8976
saida	-8977
ships	-8978
ublin	-8979
ulate	-8980
using	-8981
usted	-8982
while	-8983
▁Amoz	-8984
▁Back	-8985
▁Bear	-8986
▁Bern	-8987
▁Deat	-8988
▁Five	-8989
▁Hard	-8990
▁Says	-8991
▁Sham	-8992
▁Them	-8993
▁WHEN	-8994
▁Wota	-8995
▁asks	-8996
▁cell	-8997
▁dash	-8998
▁didn	-8999
▁evol	-9000
▁keen	-9001
▁meek	-9002
▁path	-9003
▁pric	-9004
▁sang	-9005
▁suck	-9006
▁swip	-9007
▁text	-9008
▁wolf	-9009
▁zone	-9010
androy	-9011
appuah	-9012
ession	-9013
gement	-9014
giving	-9015
idents	-9016
ifying	-9017
itants	-9018
onomic	-9019
thites	-9020
uselah	-9021
▁Above	-9022
▁Diehl	-9023
▁Efron	-9024
▁Famil	-9025
▁Heber	-9026
▁Hosea	-9027
▁Italy	-9028
▁Jamin	-9029
▁Laish	-9030
▁Latin	-9031
▁Louis	-9032
▁Luigi	-9033
▁Maybe	-9034
▁Nadia	-9035
▁Pione	-9036
▁Rekab	-9037
▁Sense	-9038
▁Third	-9039
▁Trust	-9040
▁Truth	-9041
▁brain	-9042
▁coals	-9043
▁frogs	-9044
▁giant	-9045
▁gutta	-9046
▁hoped	-9047
▁lamps	-9048
▁media	-9049
▁misef	-9050
▁pawas	-9051
▁proof	-9052
▁radio	-9053
▁salot	-9054
▁skale	-9055
▁skirt	-9056
▁sperm	-9057
▁stake	-9058
▁strip	-9059
▁trick	-9060
Abraham	-9061
farmers	-9062
friends	-9063
uestion	-9064
ureshon	-9065
▁Asshur	-9066
▁Betuel	-9067
▁Discip	-9068
▁Dublin	-9069
▁Elieza	-9070
▁Eshtem	-9071
▁French	-9072
▁Kenite	-9073
▁Mikael	-9074
▁Nadine	-9075
▁Netoph	-9076
▁Publis	-9077
▁almond	-9078
▁clothe	-9079
▁desper	-9080
▁disple	-9081
▁eating	-9082
▁grandm	-9083
▁narrow	-9084
▁polish	-9085
▁ponder	-9086
▁shiefs	-9087
▁stands	-9088
▁unwise	-9089
▁warmly	-9090
▁yuzful	-9091
▁144,000	-9092
▁Aramean	-9093
▁Bahurim	-9094
▁Goliath	-9095
▁Jerimot	-9096
▁Mikmash	-9097
▁Shimron	-9098
▁Shortly	-9099
▁alcohol	-9100
▁angelic	-9101
▁appoint	-9102
▁central	-9103
▁couples	-9104
▁cymbals	-9105
▁dancing	-9106
▁disting	-9107
▁eagerly	-9108
▁entered	-9109
▁expects	-9110
▁folding	-9111
▁holding	-9112
▁hormone	-9113
▁initial	-9114
▁insects	-9115
▁laughed	-9116
▁leaving	-9117
▁reality	-9118
▁reinfor	-9119
▁stadium	-9120
▁stamped	-9121
▁visible	-9122
▁Ammonite	-9123
▁Colorado	-9124
▁Edomites	-9125
▁Elizabet	-9126
▁Nethanel	-9127
▁Yearbook	-9128
▁although	-9129
▁arranged	-9130
▁baptizim	-9131
▁bursting	-9132
▁chapters	-9133
▁cleaning	-9134
▁doorstep	-9135
▁economic	-9136
▁finished	-9137
▁headship	-9138
▁medicine	-9139
▁opposers	-9140
▁peaceful	-9141
▁pleasant	-9142
▁promotes	-9143
▁protests	-9144
▁requires	-9145
▁smallest	-9146
▁standard	-9147
▁suitable	-9148
▁supavise	-9149
▁threaten	-9150
▁thunders	-9151
▁transfer	-9152
▁trusting	-9153
▁uplifted	-9154
▁wondered	-9155
▁Mattaniah	-9156
▁Regarding	-9157
▁alongside	-9158
▁attitudes	-9159
▁classmate	-9160
▁concluded	-9161
▁dependent	-9162
▁discusses	-9163
▁eartkweke	-9164
▁fountains	-9165
▁invisible	-9166
▁observing	-9167
▁priceless	-9168
▁primarily	-9169
▁purposing	-9170
▁referring	-9171
▁sentenced	-9172
▁spreading	-9173
▁streaming	-9174
▁uprightly	-9175
▁viewpoint	-9176
▁vineyards	-9177
▁voluntary	-9178
▁Midianites	-9179
▁Understand	-9180
▁difference	-9181
▁earthquake	-9182
▁generously	-9183
▁immigrants	-9184
▁imprisoned	-9185
▁instructed	-9186
▁priorities	-9187
▁regardless	-9188
▁relatively	-9189
▁resureshon	-9190
▁struggling	-9191
▁supporters	-9192
▁thereafter	-9193
▁upbuilding	-9194
▁comfortable	-9195
▁descendants	-9196
▁friendships	-9197
▁inhabitants	-9198
▁overturning	-9199
▁sacrificing	-9200
▁understands	-9201
▁Belteshazzar	-9202
▁Ecclesiastes	-9203
▁associations	-9204
▁commendation	-9205
,2	-9206
AT	-9207
GB	-9208
IS	-9209
Of	-9210
PH	-9211
yk	-9212
SUS	-9213
akb	-9214
ayk	-9215
bai	-9216
bec	-9217
hea	-9218
nis	-9219
odo	-9220
ppa	-9221
ris	-9222
zur	-9223
▁56	-9224
▁66	-9225
▁79	-9226
▁94	-9227
▁Av	-9228
▁Ep	-9229
▁NA	-9230
▁Op	-9231
▁Ra	-9232
▁TO	-9233
▁Tw	-9234
▁Za	-9235
16.1	-9236
17.1	-9237
OPLE	-9238
Saul	-9239
This	-9240
When	-9241
aiot	-9242
aros	-9243
asah	-9244
cles	-9245
ebai	-9246
emot	-9247
emus	-9248
enaz	-9249
eral	-9250
horn	-9251
ijin	-9252
izio	-9253
lfur	-9254
nite	-9255
note	-9256
ofat	-9257
ores	-9258
roko	-9259
shah	-9260
slay	-9261
text	-9262
that	-9263
uese	-9264
upid	-9265
urah	-9266
uted	-9267
▁110	-9268
▁139	-9269
▁190	-9270
▁500	-9271
▁Aho	-9272
▁Amy	-9273
▁Azr	-9274
▁Beg	-9275
▁Cho	-9276
▁Fre	-9277
▁Hat	-9278
▁Hug	-9279
▁ISA	-9280
▁Ira	-9281
▁KGB	-9282
▁Kel	-9283
▁Max	-9284
▁Mib	-9285
▁Mon	-9286
▁Pah	-9287
▁Pho	-9288
▁Reu	-9289
▁Sch	-9290
▁Sha	-9291
▁Tes	-9292
▁aux	-9293
▁eng	-9294
▁pin	-9295
▁rag	-9296
▁sew	-9297
▁wol	-9298
ament	-9299
anush	-9300
athea	-9301
being	-9302
burst	-9303
chiah	-9304
emies	-9305
emoth	-9306
ended	-9307
epend	-9308
essie	-9309
horon	-9310
inson	-9311
iphar	-9312
mates	-9313
oking	-9314
onite	-9315
pelah	-9316
skins	-9317
▁1957	-9318
▁1962	-9319
▁1970	-9320
▁1979	-9321
▁2012	-9322
▁2016	-9323
▁Atar	-9324
▁Azel	-9325
▁Bakb	-9326
▁Doeg	-9327
▁Gitt	-9328
▁Hakk	-9329
▁Hayk	-9330
▁Jaaz	-9331
▁Maur	-9332
▁Plan	-9333
▁Prob	-9334
▁Real	-9335
▁Shur	-9336
▁Stop	-9337
▁Sylv	-9338
▁Tish	-9339
▁Tony	-9340
▁Want	-9341
▁Zakk	-9342
▁Zeal	-9343
▁Zeeb	-9344
▁bere	-9345
▁cock	-9346
▁grey	-9347
▁kane	-9348
▁klap	-9349
▁lita	-9350
▁mail	-9351
▁perc	-9352
▁shok	-9353
▁site	-9354
▁soak	-9355
▁stab	-9356
▁tray	-9357
Boshet	-9358
ashing	-9359
athers	-9360
atural	-9361
cariot	-9362
elling	-9363
estern	-9364
estyle	-9365
iliary	-9366
lothed	-9367
odemus	-9368
ommend	-9369
oughed	-9370
rality	-9371
uguese	-9372
urning	-9373
worthy	-9374
▁7,000	-9375
▁Adria	-9376
▁Andru	-9377
▁Arpad	-9378
▁Bebai	-9379
▁Betta	-9380
▁Broad	-9381
▁Bukki	-9382
▁Efrat	-9383
▁Elias	-9384
▁Gihon	-9385
▁JESUS	-9386
▁Janet	-9387
▁Kings	-9388
▁Lauri	-9389
▁Libni	-9390
▁Merib	-9391
▁Pallu	-9392
▁Peleg	-9393
▁Power	-9394
▁Serug	-9395
▁Share	-9396
▁Stone	-9397
▁Zikri	-9398
▁brief	-9399
▁brite	-9400
▁carts	-9401
▁delay	-9402
▁depth	-9403
▁extra	-9404
▁flour	-9405
▁notes	-9406
▁notis	-9407
▁occup	-9408
▁patri	-9409
▁pijin	-9410
▁plane	-9411
▁pregn	-9412
▁saved	-9413
▁steal	-9414
▁types	-9415
▁urges	-9416
▁wrest	-9417
arently	-9418
overing	-9419
▁20,000	-9420
▁Andrew	-9421
▁Ashtar	-9422
▁Azarel	-9423
▁Benjam	-9424
▁Betany	-9425
▁Bigvai	-9426
▁Didier	-9427
▁Goliat	-9428
▁Hivite	-9429
▁Hughes	-9430
▁Jairus	-9431
▁Number	-9432
▁PEOPLE	-9433
▁Parosh	-9434
▁Ramoni	-9435
▁Sermon	-9436
▁Shelta	-9437
▁Shinar	-9438
▁Stefen	-9439
▁Talmai	-9440
▁Walter	-9441
▁Willie	-9442
▁Zichri	-9443
▁aproko	-9444
▁bricks	-9445
▁celebr	-9446
▁crimin	-9447
▁deepen	-9448
▁exists	-9449
▁faults	-9450
▁heated	-9451
▁impact	-9452
▁intell	-9453
▁jailer	-9454
▁junior	-9455
▁lawyer	-9456
▁locked	-9457
▁senses	-9458
▁sentim	-9459
▁sulfur	-9460
▁supply	-9461
▁talked	-9462
▁tempor	-9463
▁thrown	-9464
▁virtue	-9465
▁walkin	-9466
▁weapon	-9467
▁yellow	-9468
ulations	-9469
▁Abihail	-9470
▁Azrikam	-9471
▁Bethany	-9472
▁Evriday	-9473
▁Hivites	-9474
▁Malachi	-9475
▁Netofat	-9476
▁Russian	-9477
▁Shadrak	-9478
▁Shammai	-9479
▁Tappuah	-9480
▁William	-9481
▁affairs	-9482
▁appears	-9483
▁arrival	-9484
▁assures	-9485
▁boiling	-9486
▁capital	-9487
▁comprom	-9488
▁dischar	-9489
▁enabled	-9490
▁finding	-9491
▁happier	-9492
▁helpers	-9493
▁manslay	-9494
▁methods	-9495
▁ongoing	-9496
▁profits	-9497
▁raising	-9498
▁satisfy	-9499
▁stoning	-9500
▁tempted	-9501
▁tishing	-9502
▁trobols	-9503
▁unhappy	-9504
▁unright	-9505
▁viewing	-9506
▁vulture	-9507
▁Aramaean	-9508
▁Iscariot	-9509
▁Kindness	-9510
▁Marriage	-9511
▁Maurizio	-9512
▁Potiphar	-9513
▁Promised	-9514
▁Raitious	-9515
▁Remaliah	-9516
▁Zefanaya	-9517
▁accommod	-9518
▁allowing	-9519
▁bereaved	-9520
▁boldness	-9521
▁exciting	-9522
▁fruitful	-9523
▁gathered	-9524
▁handwork	-9525
▁independ	-9526
▁joyfully	-9527
▁motivate	-9528
▁numerous	-9529
▁offended	-9530
▁probably	-9531
▁reflects	-9532
▁replaced	-9533
▁restored	-9534
▁sentence	-9535
▁stamping	-9536
▁swimming	-9537
▁thorough	-9538
▁unending	-9539
▁yeartext	-9540
▁Arimathea	-9541
▁Bethelite	-9542
▁Different	-9543
▁Haykanush	-9544
▁Judgement	-9545
▁Nicodemus	-9546
▁Zidonians	-9547
▁appealing	-9548
▁auxiliary	-9549
▁condemned	-9550
▁considers	-9551
▁eliminate	-9552
▁empowered	-9553
▁essential	-9554
▁evolution	-9555
▁gathering	-9556
▁generally	-9557
▁indicates	-9558
▁lifestyle	-9559
▁newspaper	-9560
▁numbering	-9561
▁peaceable	-9562
▁performed	-9563
▁recommend	-9564
▁religions	-9565
▁secondary	-9566
▁unclothed	-9567
▁volunteer	-9568
▁wholesome	-9569
▁Portuguese	-9570
▁additional	-9571
▁appearance	-9572
▁corruption	-9573
▁disappoint	-9574
▁encourages	-9575
▁koncerning	-9576
▁persecuted	-9577
▁physically	-9578
▁temptashon	-9579
▁wickedness	-9580
▁Gershonites	-9581
▁expectation	-9582
▁perspective	-9583
▁territories	-9584
▁unrighteous	-9585
▁vindication	-9586
▁willingness	-9587
▁Thessalonica	-9588
▁commandments	-9589
▁experiencing	-9590
▁specifically	-9591
▁Thessalonians	-9592
▁communication	-9593
,3	-9594
.2	-9595
CE	-9596
Ch	-9597
Re	-9598
ca	-9599
la	-9600
oe	-9601
Kuk	-9602
Sam	-9603
aku	-9604
col	-9605
equ	-9606
giv	-9607
hek	-9608
ibr	-9609
ien	-9610
ija	-9611
ije	-9612
iro	-9613
isy	-9614
kon	-9615
lam	-9616
onx	-9617
sol	-9618
tah	-9619
uff	-9620
umu	-9621
zan	-9622
zeb	-9623
▁BE	-9624
▁ME	-9625
▁Sm	-9626
▁ce	-9627
▁ir	-9628
Baal	-9629
Time	-9630
anie	-9631
arat	-9632
aris	-9633
fety	-9634
iael	-9635
icts	-9636
init	-9637
inna	-9638
kaya	-9639
kwol	-9640
noon	-9641
odus	-9642
olis	-9643
pire	-9644
pped	-9645
quid	-9646
resp	-9647
tens	-9648
ulun	-9649
uter	-9650
what	-9651
zeel	-9652
▁127	-9653
▁134	-9654
▁Ari	-9655
▁Cry	-9656
▁Der	-9657
▁Gib	-9658
▁Ker	-9659
▁Mau	-9660
▁Nep	-9661
▁Non	-9662
▁Otn	-9663
▁TIM	-9664
▁Tik	-9665
▁ens	-9666
▁fix	-9667
▁hat	-9668
▁peg	-9669
▁ton	-9670
Jakob	-9671
Kukur	-9672
Moses	-9673
abbas	-9674
acles	-9675
arsus	-9676
ashed	-9677
ashub	-9678
clock	-9679
cture	-9680
inely	-9681
irect	-9682
ishop	-9683
iters	-9684
ology	-9685
ousin	-9686
ronic	-9687
rooms	-9688
umble	-9689
uppim	-9690
ushon	-9691
ustry	-9692
▁Adah	-9693
▁Ahio	-9694
▁Anna	-9695
▁Eart	-9696
▁Elif	-9697
▁Elis	-9698
▁Ever	-9699
▁Free	-9700
▁Hill	-9701
▁Kald	-9702
▁Kore	-9703
▁Lije	-9704
▁Mean	-9705
▁Milk	-9706
▁Nazi	-9707
▁Neko	-9708
▁Ribe	-9709
▁Salm	-9710
▁Self	-9711
▁Shut	-9712
▁Tola	-9713
▁Zacc	-9714
▁Zach	-9715
▁aged	-9716
▁game	-9717
▁heed	-9718
▁huge	-9719
▁jobs	-9720
▁kick	-9721
▁mana	-9722
▁mest	-9723
▁mult	-9724
▁onyx	-9725
▁plat	-9726
▁sets	-9727
▁soup	-9728
▁unve	-9729
▁upst	-9730
▁urge	-9731
▁ward	-9732
▁yest	-9733
Hinnom	-9734
active	-9735
eptive	-9736
itated	-9737
panhes	-9738
plants	-9739
sevent	-9740
terday	-9741
▁Bronx	-9742
▁Cedar	-9743
▁Ethan	-9744
▁Grave	-9745
▁Honor	-9746
▁Huram	-9747
▁Lamek	-9748
▁Molek	-9749
▁Necho	-9750
▁Rabbi	-9751
▁Shaal	-9752
▁State	-9753
▁Throw	-9754
▁Years	-9755
▁admin	-9756
▁citiz	-9757
▁deleg	-9758
▁ekwol	-9759
▁entit	-9760
▁gross	-9761
▁hates	-9762
▁insul	-9763
▁leads	-9764
▁lengt	-9765
▁moons	-9766
▁organ	-9767
▁penny	-9768
▁renew	-9769
▁tooth	-9770
▁twent	-9771
▁ungod	-9772
▁unint	-9773
atakata	-9774
casting	-9775
dresses	-9776
jection	-9777
shazzar	-9778
umbered	-9779
▁Amasai	-9780
▁Arabia	-9781
▁Choose	-9782
▁Dathan	-9783
▁Empire	-9784
▁Family	-9785
▁Heldai	-9786
▁Nichol	-9787
▁Rudolf	-9788
▁Shelom	-9789
▁Shimea	-9790
▁Sibmah	-9791
▁Source	-9792
▁actual	-9793
▁butter	-9794
▁critic	-9795
▁double	-9796
▁duties	-9797
▁empire	-9798
▁escape	-9799
▁fisher	-9800
▁hatred	-9801
▁kamels	-9802
▁kolour	-9803
▁liquid	-9804
▁losing	-9805
▁marvel	-9806
▁membas	-9807
▁molded	-9808
▁murder	-9809
▁obeyed	-9810
▁poured	-9811
▁rainin	-9812
▁remark	-9813
▁rilate	-9814
▁safety	-9815
▁shovel	-9816
▁sincer	-9817
▁skills	-9818
▁spoons	-9819
▁strenj	-9820
▁unholy	-9821
▁unkind	-9822
Kukuruku	-9823
cription	-9824
entional	-9825
▁Abishua	-9826
▁Against	-9827
▁Corinna	-9828
▁Emperor	-9829
▁Ephrath	-9830
▁Granted	-9831
▁Jediael	-9832
▁Organiz	-9833
▁Problem	-9834
▁Ribeiro	-9835
▁Serving	-9836
▁accused	-9837
▁amazing	-9838
▁cherish	-9839
▁complex	-9840
▁copying	-9841
▁disagre	-9842
▁drivers	-9843
▁fasting	-9844
▁feature	-9845
▁glorify	-9846
▁haughty	-9847
▁intrest	-9848
▁kissing	-9849
▁leopard	-9850
▁loyally	-9851
▁marking	-9852
▁molding	-9853
▁obvious	-9854
▁oneness	-9855
▁percent	-9856
▁pigeons	-9857
▁prevail	-9858
▁qualify	-9859
▁relying	-9860
▁scholar	-9861
▁storing	-9862
▁stretch	-9863
▁tremend	-9864
▁uniting	-9865
▁wayside	-9866
▁wearing	-9867
▁writers	-9868
▁Describe	-9869
▁Elimelek	-9870
▁Eshtemoa	-9871
▁Herodias	-9872
▁Mountain	-9873
▁Republic	-9874
▁Wherever	-9875
▁absolute	-9876
▁adjusted	-9877
▁centered	-9878
▁constant	-9879
▁contrary	-9880
▁diligent	-9881
▁disaster	-9882
▁horseman	-9883
▁imagined	-9884
▁leavened	-9885
▁majority	-9886
▁memories	-9887
▁modestly	-9888
▁platform	-9889
▁ploughed	-9890
▁portions	-9891
▁prompted	-9892
▁respects	-9893
▁smashing	-9894
▁watchers	-9895
▁watering	-9896
▁welcomed	-9897
▁yestiday	-9898
▁Berechiah	-9899
▁Education	-9900
▁Magdalene	-9901
▁Malchijah	-9902
▁Tahpanhes	-9903
▁afternoon	-9904
▁afterward	-9905
▁branching	-9906
▁cleanness	-9907
▁hypocrisy	-9908
▁manslayer	-9909
▁motivates	-9910
▁obstacles	-9911
▁perfectly	-9912
▁preparing	-9913
▁prominent	-9914
▁safeguard	-9915
▁scripture	-9916
▁shepherds	-9917
▁similarly	-9918
▁struggled	-9919
▁testimony	-9920
▁undertook	-9921
▁unnatural	-9922
▁yesterday	-9923
▁zealously	-9924
▁Bethelites	-9925
▁Jehoiachin	-9926
▁Publishers	-9927
▁Shephatiah	-9928
▁Wickedness	-9929
▁assistance	-9930
▁circumcise	-9931
▁continuing	-9932
▁discussing	-9933
▁displaying	-9934
▁eighteenth	-9935
▁foreigners	-9936
▁leadership	-9937
▁overcoming	-9938
▁population	-9939
▁resentment	-9940
▁respectful	-9941
▁surrounded	-9942
▁thirteenth	-9943
▁thundering	-9944
▁undergoing	-9945
▁discussions	-9946
▁necessities	-9947
▁participate	-9948
▁prayerfully	-9949
▁represented	-9950
▁Broadcasting	-9951
▁demonstrated	-9952
▁disappointed	-9953
▁miraculously	-9954
▁conversations	-9955
▁imperfections	-9956
BR	-9957
By	-9958
CH	-9959
Do	-9960
Je	-9961
OD	-9962
br	-9963
iy	-9964
my	-9965
ov	-9966
600	-9967
INE	-9968
OME	-9969
SSR	-9970
abe	-9971
agu	-9972
bye	-9973
dis	-9974
dol	-9975
esp	-9976
ett	-9977
fek	-9978
fif	-9979
hat	-9980
hub	-9981
iab	-9982
mok	-9983
opy	-9984
owa	-9985
raw	-9986
rog	-9987
ror	-9988
ros	-9989
see	-9990
til	-9991
tsa	-9992
vak	-9993
▁57	-9994
▁95	-9995
▁Dr	-9996
▁GA	-9997
▁Iv	-9998
▁er	-9999
▁ut	-10000
agal	-10001
akin	-10002
aleh	-10003
alls	-10004
arag	-10005
aram	-10006
ason	-10007
azim	-10008
bach	-10009
beth	-10010
eroz	-10011
even	-10012
ezer	-10013
give	-10014
good	-10015
hern	-10016
imus	-10017
iphe	-10018
isia	-10019
lter	-10020
oiim	-10021
olds	-10022
osef	-10023
pers	-10024
rees	-10025
shad	-10026
udan	-10027
ugal	-10028
ulty	-10029
view	-10030
▁Aha	-10031
▁Ain	-10032
▁Buz	-10033
▁COL	-10034
▁Gem	-10035
▁Gun	-10036
▁Jap	-10037
▁Kum	-10038
▁Lud	-10039
▁Ono	-10040
▁Pir	-10041
▁Sey	-10042
▁Sho	-10043
▁Str	-10044
▁Zan	-10045
▁aim	-10046
▁bol	-10047
▁tea	-10048
▁tun	-10049
Jerem	-10050
addah	-10051
aioth	-10052
annes	-10053
antan	-10054
atira	-10055
attir	-10056
ecess	-10057
eroth	-10058
eshem	-10059
isive	-10060
izpah	-10061
night	-10062
orium	-10063
pains	-10064
rofet	-10065
sheke	-10066
stone	-10067
thnic	-10068
▁1939	-10069
▁1947	-10070
▁1953	-10071
▁1955	-10072
▁1990	-10073
▁Afek	-10074
▁Ater	-10075
▁Bill	-10076
▁Cent	-10077
▁Comm	-10078
▁Elim	-10079
▁Etan	-10080
▁Food	-10081
▁Full	-10082
▁Gidd	-10083
▁Hamm	-10084
▁Hatt	-10085
▁Hosh	-10086
▁Imma	-10087
▁Jean	-10088
▁Lehi	-10089
▁Lucy	-10090
▁Meun	-10091
▁Mist	-10092
▁Moza	-10093
▁Need	-10094
▁Part	-10095
▁Pati	-10096
▁Peda	-10097
▁Peor	-10098
▁Shek	-10099
▁Shuh	-10100
▁Sibb	-10101
▁Tema	-10102
▁USSR	-10103
▁Zill	-10104
▁Zoph	-10105
▁aldo	-10106
▁date	-10107
▁dign	-10108
▁dire	-10109
▁educ	-10110
▁embr	-10111
▁entr	-10112
▁fled	-10113
▁gamb	-10114
▁incl	-10115
▁kart	-10116
▁keys	-10117
▁link	-10118
▁mumu	-10119
▁omer	-10120
▁pash	-10121
▁peac	-10122
▁rams	-10123
▁rise	-10124
▁roes	-10125
▁seal	-10126
▁soil	-10127
▁taun	-10128
▁trig	-10129
▁vain	-10130
▁whip	-10131
Christ	-10132
agalog	-10133
elaaya	-10134
forter	-10135
fourth	-10136
istent	-10137
istics	-10138
kariot	-10139
looked	-10140
melech	-10141
ortion	-10142
ouched	-10143
▁1,600	-10144
▁6,000	-10145
▁Admah	-10146
▁Adolf	-10147
▁Akaia	-10148
▁Basem	-10149
▁Chris	-10150
▁Curse	-10151
▁Elife	-10152
▁Enjoy	-10153
▁Event	-10154
▁Glory	-10155
▁Halls	-10156
▁Harar	-10157
▁Hosah	-10158
▁Immer	-10159
▁Index	-10160
▁Irene	-10161
▁Jafet	-10162
▁Javan	-10163
▁Jesha	-10164
▁Krete	-10165
▁Ladan	-10166
▁Lotan	-10167
▁Magog	-10168
▁Meroz	-10169
▁Nisan	-10170
▁Ophir	-10171
▁Ornan	-10172
▁Pavel	-10173
▁Potif	-10174
▁Rekem	-10175
▁Sudan	-10176
▁Timna	-10177
▁Until	-10178
▁Zarag	-10179
▁Zered	-10180
▁absor	-10181
▁adult	-10182
▁badly	-10183
▁caret	-10184
▁compl	-10185
▁exert	-10186
▁feels	-10187
▁greed	-10188
▁intim	-10189
▁jewel	-10190
▁kinds	-10191
▁kraze	-10192
▁merit	-10193
▁model	-10194
▁paste	-10195
▁pearl	-10196
▁persu	-10197
▁polic	-10198
▁quart	-10199
▁ridic	-10200
▁sheke	-10201
▁skies	-10202
▁swell	-10203
▁title	-10204
▁turns	-10205
▁uncom	-10206
▁wiser	-10207
▁yoked	-10208
alonika	-10209
cutters	-10210
espread	-10211
icating	-10212
missive	-10213
▁Abarim	-10214
▁Abidan	-10215
▁Achaia	-10216
▁Always	-10217
▁Anakim	-10218
▁Angels	-10219
▁Athens	-10220
▁Baalah	-10221
▁Bakbuk	-10222
▁Become	-10223
▁Beraya	-10224
▁Dishan	-10225
▁Elifaz	-10226
▁Eliphe	-10227
▁Ephron	-10228
▁Exodus	-10229
▁Hakkoz	-10230
▁Hammed	-10231
▁Jattir	-10232
▁Joiada	-10233
▁Kumiko	-10234
▁Massah	-10235
▁Maxine	-10236
▁Migdol	-10237
▁Milcah	-10238
▁Naamah	-10239
▁Notice	-10240
▁Otniel	-10241
▁Talmon	-10242
▁Tarsus	-10243
▁Tessie	-10244
▁Thirty	-10245
▁Tokmok	-10246
▁Zakkur	-10247
▁Zanoah	-10248
▁access	-10249
▁agreed	-10250
▁banded	-10251
▁betray	-10252
▁border	-10253
▁caught	-10254
▁ethnic	-10255
▁excess	-10256
▁extrem	-10257
▁insult	-10258
▁lantan	-10259
▁manaja	-10260
▁misuse	-10261
▁nearby	-10262
▁observ	-10263
▁owners	-10264
▁permit	-10265
▁powder	-10266
▁reconc	-10267
▁relied	-10268
▁scient	-10269
▁severe	-10270
▁sikure	-10271
▁skware	-10272
▁slowly	-10273
▁stupid	-10274
▁tradas	-10275
▁unlike	-10276
▁unseen	-10277
▁wolves	-10278
carriage	-10279
▁Abishag	-10280
▁Ahiezer	-10281
▁Aramaik	-10282
▁Baptism	-10283
▁Beeroth	-10284
▁Besides	-10285
▁Bethuel	-10286
▁Blossom	-10287
▁Elealeh	-10288
▁Eleasah	-10289
▁Enemies	-10290
▁Gabriel	-10291
▁Hasshub	-10292
▁Hearing	-10293
▁Japheth	-10294
▁Karachi	-10295
▁Oholiab	-10296
▁Prophet	-10297
▁Servant	-10298
▁Shammua	-10299
▁Sheshan	-10300
▁Shittim	-10301
▁Siberia	-10302
▁Silisia	-10303
▁Tagalog	-10304
▁Zeboiim	-10305
▁backing	-10306
▁bedroom	-10307
▁capable	-10308
▁counter	-10309
▁current	-10310
▁deepest	-10311
▁engaged	-10312
▁exposed	-10313
▁happily	-10314
▁holiday	-10315
▁illness	-10316
▁lacking	-10317
▁likened	-10318
▁literal	-10319
▁minutes	-10320
▁mustard	-10321
▁nowhere	-10322
▁popular	-10323
▁printed	-10324
▁recover	-10325
▁reminds	-10326
▁seaside	-10327
▁serpent	-10328
▁shortly	-10329
▁tenants	-10330
▁threads	-10331
▁tonight	-10332
▁upstair	-10333
▁warrior	-10334
▁weights	-10335
▁wrongly	-10336
▁Fifteent	-10337
▁Hardaker	-10338
▁Internet	-10339
▁Iskariot	-10340
▁Jahaziel	-10341
▁Johannes	-10342
▁Michmash	-10343
▁Oholibah	-10344
▁Portugal	-10345
▁Shelomit	-10346
▁Strenjas	-10347
▁Sylviana	-10348
▁Together	-10349
▁Tomorrow	-10350
▁Zaragoza	-10351
▁advisers	-10352
▁appeared	-10353
▁arrested	-10354
▁carrying	-10355
▁cautious	-10356
▁contempl	-10357
▁enduring	-10358
▁friendly	-10359
▁greaters	-10360
▁industry	-10361
▁listened	-10362
▁merciful	-10363
▁mestrate	-10364
▁nakednes	-10365
▁organize	-10366
▁outburst	-10367
▁outlined	-10368
▁overlook	-10369
▁payments	-10370
▁printing	-10371
▁profound	-10372
▁pursuits	-10373
▁register	-10374
▁reliable	-10375
▁rightful	-10376
▁southern	-10377
▁stressed	-10378
▁subjects	-10379
▁tendency	-10380
▁thankful	-10381
▁thrilled	-10382
▁treacher	-10383
▁trumpets	-10384
▁twisting	-10385
▁unnecess	-10386
▁woodland	-10387
▁Elizabeth	-10388
▁Salvation	-10389
▁Shecaniah	-10390
▁Shefataya	-10391
▁Shekanaya	-10392
▁Shelemaya	-10393
▁Shelemiah	-10394
▁Something	-10395
▁advertise	-10396
▁anxieties	-10397
▁believing	-10398
▁bodyguard	-10399
▁comforter	-10400
▁community	-10401
▁discharge	-10402
▁exercised	-10403
▁glorified	-10404
▁greatness	-10405
▁listeners	-10406
▁materials	-10407
▁otherwise	-10408
▁permanent	-10409
▁preserved	-10410
▁protected	-10411
▁rewarding	-10412
▁steadfast	-10413
▁tradition	-10414
▁undergoes	-10415
▁unmarried	-10416
▁untouched	-10417
▁Belshazzar	-10418
▁Eventually	-10419
▁Tesalonika	-10420
▁classmates	-10421
▁confronted	-10422
▁discourage	-10423
▁discovered	-10424
▁facilities	-10425
▁identified	-10426
▁injustices	-10427
▁meditation	-10428
▁neutrality	-10429
▁protesting	-10430
▁tremendous	-10431
▁widespread	-10432
▁Babylonians	-10433
▁Melchizedek	-10434
▁associating	-10435
▁controlling	-10436
▁disposition	-10437
▁effectively	-10438
▁highlighted	-10439
▁seriousness	-10440
▁strengthens	-10441
▁appreciative	-10442
▁commissioned	-10443
▁expectations	-10444
▁contributions	-10445
▁relationships	-10446
▁unintentional	-10447
▁discouragement	-10448
!)	-10449
AS	-10450
Br	-10451
Ge	-10452
IL	-10453
ND	-10454
Pe	-10455
ST	-10456
gl	-10457
ks	-10458
sm	-10459
Con	-10460
Ham	-10461
Put	-10462
She	-10463
aff	-10464
ann	-10465
bag	-10466
bel	-10467
cil	-10468
ebo	-10469
ese	-10470
ext	-10471
fax	-10472
gam	-10473
gob	-10474
han	-10475
igl	-10476
ird	-10477
izz	-10478
min	-10479
naw	-10480
nia	-10481
oma	-10482
ona	-10483
oop	-10484
rea	-10485
shb	-10486
shi	-10487
uag	-10488
ubu	-10489
weh	-10490
▁63	-10491
▁77	-10492
▁IN	-10493
▁Kl	-10494
▁TH	-10495
▁WH	-10496
Like	-10497
Moab	-10498
akan	-10499
alal	-10500
anes	-10501
anna	-10502
atah	-10503
attu	-10504
bour	-10505
chel	-10506
erot	-10507
erts	-10508
ften	-10509
ikus	-10510
inda	-10511
iors	-10512
ioth	-10513
istr	-10514
mind	-10515
okes	-10516
omed	-10517
omen	-10518
orts	-10519
pany	-10520
peor	-10521
ssip	-10522
take	-10523
tint	-10524
uard	-10525
uced	-10526
utal	-10527
▁1,2	-10528
▁Ada	-10529
▁Ast	-10530
▁Cle	-10531
▁Geb	-10532
▁Hob	-10533
▁Ill	-10534
▁Inc	-10535
▁Jaf	-10536
▁Kab	-10537
▁Kor	-10538
▁Mij	-10539
▁Mis	-10540
▁Oda	-10541
▁Pay	-10542
▁Spe	-10543
▁Too	-10544
▁hid	-10545
▁jam	-10546
▁lip	-10547
▁lon	-10548
▁mob	-10549
▁nok	-10550
▁shy	-10551
Woman	-10552
abeth	-10553
addon	-10554
ahweh	-10555
arget	-10556
arias	-10557
enses	-10558
ephar	-10559
ephas	-10560
essor	-10561
faxad	-10562
first	-10563
giver	-10564
givin	-10565
holes	-10566
ianni	-10567
iarib	-10568
illed	-10569
inter	-10570
isons	-10571
itess	-10572
judah	-10573
oglah	-10574
olesc	-10575
onaim	-10576
phone	-10577
suing	-10578
terus	-10579
utely	-10580
▁Abib	-10581
▁Akan	-10582
▁Alem	-10583
▁Bank	-10584
▁Bart	-10585
▁Bles	-10586
▁Chen	-10587
▁Dest	-10588
▁Earl	-10589
▁Enan	-10590
▁Etta	-10591
▁Fore	-10592
▁Hand	-10593
▁Hele	-10594
▁Heli	-10595
▁Herm	-10596
▁Ishi	-10597
▁Japh	-10598
▁Lazy	-10599
▁Made	-10600
▁Main	-10601
▁Mair	-10602
▁Moon	-10603
▁Name	-10604
▁Oded	-10605
▁Ohio	-10606
▁Park	-10607
▁Perr	-10608
▁Puah	-10609
▁Seba	-10610
▁Sign	-10611
▁Tigl	-10612
▁Wait	-10613
▁doll	-10614
▁emer	-10615
▁exha	-10616
▁hail	-10617
▁mand	-10618
▁neat	-10619
▁nika	-10620
▁phon	-10621
▁rank	-10622
▁reap	-10623
▁sack	-10624
▁sibl	-10625
Connor	-10626
ainted	-10627
ambubu	-10628
ameses	-10629
ammite	-10630
apolis	-10631
ctions	-10632
enicia	-10633
ension	-10634
flames	-10635
icious	-10636
ileser	-10637
irable	-10638
minded	-10639
rimmon	-10640
uagint	-10641
ulated	-10642
▁Adaya	-10643
▁Adoni	-10644
▁Arabi	-10645
▁Argob	-10646
▁Carry	-10647
▁Const	-10648
▁Datan	-10649
▁Frank	-10650
▁Greet	-10651
▁Guide	-10652
▁Jahat	-10653
▁Jetro	-10654
▁Karmi	-10655
▁Libya	-10656
▁Lydia	-10657
▁Marah	-10658
▁Money	-10659
▁Nazar	-10660
▁Nikol	-10661
▁Often	-10662
▁Point	-10663
▁Rehab	-10664
▁Right	-10665
▁Seven	-10666
▁Tomas	-10667
▁Train	-10668
▁Zattu	-10669
▁accus	-10670
▁adopt	-10671
▁arias	-10672
▁arose	-10673
▁boats	-10674
▁broad	-10675
▁brows	-10676
▁bulls	-10677
▁cheer	-10678
▁equip	-10679
▁figur	-10680
▁flies	-10681
▁flood	-10682
▁freed	-10683
▁habit	-10684
▁initi	-10685
▁lifes	-10686
▁mates	-10687
▁nites	-10688
▁opens	-10689
▁pages	-10690
▁piece	-10691
▁plain	-10692
▁rains	-10693
▁scent	-10694
▁stage	-10695
▁teens	-10696
▁terms	-10697
▁tithe	-10698
▁topaz	-10699
▁tries	-10700
▁unple	-10701
▁upset	-10702
▁yield	-10703
achshad	-10704
imately	-10705
initely	-10706
irement	-10707
resents	-10708
ristina	-10709
springs	-10710
vention	-10711
▁Adaiah	-10712
▁Advert	-10713
▁Ammiel	-10714
▁Astart	-10715
▁Azazel	-10716
▁Beriah	-10717
▁Cephas	-10718
▁Dorcas	-10719
▁Eduard	-10720
▁Galila	-10721
▁German	-10722
▁Gianni	-10723
▁Govern	-10724
▁Graham	-10725
▁Jachin	-10726
▁Jashub	-10727
▁Kittim	-10728
▁Korint	-10729
▁Listin	-10730
▁Mahlon	-10731
▁Mother	-10732
▁Rizpah	-10733
▁Sakura	-10734
▁Salmon	-10735
▁Sephar	-10736
▁Shimri	-10737
▁Steele	-10738
▁Streng	-10739
▁Thanks	-10740
▁Within	-10741
▁Zaccur	-10742
▁Zalmon	-10743
▁advanc	-10744
▁cherub	-10745
▁corner	-10746
▁cracks	-10747
▁disown	-10748
▁disreg	-10749
▁distin	-10750
▁drying	-10751
▁eagles	-10752
▁entity	-10753
▁fright	-10754
▁gossip	-10755
▁hardly	-10756
▁histor	-10757
▁instit	-10758
▁keenly	-10759
▁lepers	-10760
▁louder	-10761
▁outlaw	-10762
▁pepper	-10763
▁played	-10764
▁racial	-10765
▁rooted	-10766
▁saving	-10767
▁shades	-10768
▁slopes	-10769
▁struck	-10770
▁styles	-10771
▁terror	-10772
▁thirst	-10773
▁uproot	-10774
▁uterus	-10775
▁waited	-10776
smelling	-10777
▁200,000	-10778
▁America	-10779
▁Arfaxad	-10780
▁Barabas	-10781
▁Blessed	-10782
▁Cushite	-10783
▁Denmark	-10784
▁Happily	-10785
▁Husband	-10786
▁Joiarib	-10787
▁Knowing	-10788
▁Maschil	-10789
▁Maureen	-10790
▁Mijamin	-10791
▁Perrine	-10792
▁Rameses	-10793
▁Support	-10794
▁Suppose	-10795
▁Taanach	-10796
▁Tobijah	-10797
▁Topheth	-10798
▁achieve	-10799
▁avoided	-10800
▁chooses	-10801
▁confess	-10802
▁context	-10803
▁deprive	-10804
▁distant	-10805
▁doctors	-10806
▁footmen	-10807
▁gaining	-10808
▁hostile	-10809
▁kompond	-10810
▁neglect	-10811
▁outline	-10812
▁oversee	-10813
▁passing	-10814
▁peopled	-10815
▁runners	-10816
▁schools	-10817
▁shocked	-10818
▁slander	-10819
▁smoking	-10820
▁society	-10821
▁stumble	-10822
▁tasting	-10823
▁thrones	-10824
▁unbelie	-10825
▁ungodly	-10826
▁useless	-10827
▁wariors	-10828
▁whipped	-10829
▁Barabbas	-10830
▁Berekaya	-10831
▁Darkness	-10832
▁Faithful	-10833
▁Horonaim	-10834
▁Nehemaya	-10835
▁Remalaya	-10836
▁Servants	-10837
▁Thinking	-10838
▁Thousand	-10839
▁assisted	-10840
▁believer	-10841
▁believes	-10842
▁birthday	-10843
▁combined	-10844
▁comforts	-10845
▁computer	-10846
▁cultures	-10847
▁deserves	-10848
▁designer	-10849
▁doubting	-10850
▁enjoying	-10851
▁entitled	-10852
▁equipped	-10853
▁grieving	-10854
▁isolated	-10855
▁katakata	-10856
▁meantime	-10857
▁mentions	-10858
▁mistaken	-10859
▁obtained	-10860
▁passages	-10861
▁passions	-10862
▁pointing	-10863
▁possibly	-10864
▁preserve	-10865
▁promoted	-10866
▁purposed	-10867
▁rendered	-10868
▁reported	-10869
▁ridicule	-10870
▁sexually	-10871
▁siblings	-10872
▁simplify	-10873
▁stumbled	-10874
▁survival	-10875
▁tempered	-10876
▁thirtint	-10877
▁websites	-10878
▁Chaldaean	-10879
▁Elisabeth	-10880
▁Endurance	-10881
▁Gileadite	-10882
▁Testimony	-10883
▁Zacharias	-10884
▁accompany	-10885
▁apprehens	-10886
▁caretaker	-10887
▁contained	-10888
▁cooperate	-10889
▁dishonest	-10890
▁employees	-10891
▁exercises	-10892
▁extending	-10893
▁firsthand	-10894
▁foolishly	-10895
▁horseback	-10896
▁imitating	-10897
▁impartial	-10898
▁inherited	-10899
▁intention	-10900
▁involving	-10901
▁operation	-10902
▁overtakes	-10903
▁patriarch	-10904
▁prayerful	-10905
▁promoting	-10906
▁rejoicing	-10907
▁residents	-10908
▁resulting	-10909
▁ripresent	-10910
▁satisfied	-10911
▁sensitive	-10912
▁somewhere	-10913
▁telephone	-10914
▁thrilling	-10915
▁uprooting	-10916
▁wondering	-10917
▁Arpachshad	-10918
▁Christlike	-10919
▁Mairambubu	-10920
▁Septuagint	-10921
▁Thereafter	-10922
▁apparently	-10923
▁approached	-10924
▁authorized	-10925
▁birthright	-10926
▁collectors	-10927
▁controller	-10928
▁convincing	-10929
▁developing	-10930
▁earthworks	-10931
▁figurative	-10932
▁lifesaving	-10933
▁obligation	-10934
▁ornamented	-10935
▁overlooked	-10936
▁politician	-10937
▁previously	-10938
▁prominence	-10939
▁rebellious	-10940
▁transgress	-10941
▁undertaken	-10942
▁advancement	-10943
▁application	-10944
▁approaching	-10945
▁competition	-10946
▁distinguish	-10947
▁hardworking	-10948
▁headquarter	-10949
▁intelligent	-10950
▁unnecessary	-10951
▁considerable	-10952
▁disobedience	-10953
▁increasingly	-10954
▁independence	-10955
▁introduction	-10956
▁overwhelming	-10957
▁significance	-10958
▁grandchildren	-10959
▁accommodations	-10960
▁sanctification	-10961
▁characteristics	-10962
15	-10963
An	-10964
EL	-10965
IT	-10966
Le	-10967
Me	-10968
RE	-10969
St	-10970
WS	-10971
lt	-10972
Bab	-10973
Dan	-10974
IAL	-10975
Joh	-10976
MOR	-10977
ORD	-10978
aud	-10979
aur	-10980
bet	-10981
bim	-10982
but	-10983
chy	-10984
eag	-10985
got	-10986
hos	-10987
jah	-10988
ofe	-10989
oft	-10990
onf	-10991
peh	-10992
pph	-10993
pus	-10994
uph	-10995
urt	-10996
wik	-10997
xts	-10998
▁2,	-10999
▁67	-11000
▁71	-11001
▁76	-11002
▁91	-11003
▁JO	-11004
▁ZE	-11005
John	-11006
Lord	-11007
ahar	-11008
arba	-11009
aste	-11010
asur	-11011
aton	-11012
ault	-11013
avah	-11014
bias	-11015
bits	-11016
cont	-11017
dess	-11018
drop	-11019
evah	-11020
from	-11021
garm	-11022
icip	-11023
idim	-11024
iety	-11025
igor	-11026
ilud	-11027
ivil	-11028
lech	-11029
lets	-11030
lias	-11031
meon	-11032
nake	-11033
ogel	-11034
ohan	-11035
olly	-11036
plus	-11037
rape	-11038
rase	-11039
reme	-11040
umed	-11041
verb	-11042
▁101	-11043
▁115	-11044
▁121	-11045
▁145	-11046
▁430	-11047
▁607	-11048
▁700	-11049
▁900	-11050
▁Bad	-11051
▁Cil	-11052
▁Eln	-11053
▁Jot	-11054
▁Ket	-11055
▁Liv	-11056
▁Lod	-11057
▁Met	-11058
▁Off	-11059
▁PET	-11060
▁Pun	-11061
▁ROM	-11062
▁Ret	-11063
▁Sac	-11064
▁Zem	-11065
▁fer	-11066
▁fir	-11067
▁jaw	-11068
▁kob	-11069
▁lux	-11070
▁mal	-11071
▁oce	-11072
▁opt	-11073
▁pap	-11074
▁rat	-11075
▁syc	-11076
▁vac	-11077
▁wot	-11078
▁yan	-11079
,500.	-11080
Curse	-11081
Geber	-11082
Josef	-11083
Komot	-11084
These	-11085
aging	-11086
ahzur	-11087
ailed	-11088
arnea	-11089
aseah	-11090
askat	-11091
bleam	-11092
conut	-11093
cshon	-11094
drops	-11095
endom	-11096
erick	-11097
eshim	-11098
estly	-11099
ethro	-11100
hehad	-11101
holah	-11102
human	-11103
ianic	-11104
iddim	-11105
ipple	-11106
nisos	-11107
olume	-11108
orter	-11109
ossed	-11110
otten	-11111
oving	-11112
phath	-11113
stery	-11114
tario	-11115
tedly	-11116
umiel	-11117
vakom	-11118
woman	-11119
ykchy	-11120
zatha	-11121
zebub	-11122
▁1931	-11123
▁1946	-11124
▁1959	-11125
▁1966	-11126
▁1973	-11127
▁1993	-11128
▁1995	-11129
▁2001	-11130
▁2003	-11131
▁2004	-11132
▁2006	-11133
▁2009	-11134
▁Adin	-11135
▁Apun	-11136
▁Arad	-11137
▁Azub	-11138
▁Belf	-11139
▁Bene	-11140
▁Cher	-11141
▁Circ	-11142
▁Down	-11143
▁Emil	-11144
▁Gall	-11145
▁Guni	-11146
▁Head	-11147
▁Heba	-11148
▁Hems	-11149
▁KING	-11150
▁Makr	-11151
▁Mede	-11152
▁Next	-11153
▁Nora	-11154
▁Sela	-11155
▁Shed	-11156
▁Sold	-11157
▁Tatt	-11158
▁Tert	-11159
▁Than	-11160
▁Trin	-11161
▁Wife	-11162
▁Wons	-11163
▁Wood	-11164
▁Zuar	-11165
▁affl	-11166
▁bait	-11167
▁bisc	-11168
▁deed	-11169
▁fier	-11170
▁foam	-11171
▁fond	-11172
▁grav	-11173
▁kave	-11174
▁mock	-11175
▁moda	-11176
▁mort	-11177
▁mour	-11178
▁nack	-11179
▁none	-11180
▁pine	-11181
▁quit	-11182
▁rare	-11183
▁rate	-11184
▁rebu	-11185
▁rubb	-11186
▁scar	-11187
▁soap	-11188
▁spar	-11189
▁subs	-11190
▁tort	-11191
MORIAL	-11192
Tumoro	-11193
arming	-11194
assing	-11195
bearer	-11196
encies	-11197
garmah	-11198
guards	-11199
icians	-11200
ifully	-11201
iletus	-11202
illing	-11203
ithiah	-11204
kinson	-11205
ofehad	-11206
opotam	-11207
pphire	-11208
velope	-11209
▁Adram	-11210
▁Ahira	-11211
▁Angat	-11212
▁Angie	-11213
▁Aphek	-11214
▁Asaya	-11215
▁Ashan	-11216
▁Attai	-11217
▁Carmi	-11218
▁Chere	-11219
▁Comot	-11220
▁Derbe	-11221
▁Earth	-11222
▁Ebias	-11223
▁False	-11224
▁Field	-11225
▁Georg	-11226
▁Heart	-11227
▁Hegai	-11228
▁Helon	-11229
▁Hirah	-11230
▁Human	-11231
▁Ilias	-11232
▁Jabez	-11233
▁Jalam	-11234
▁Julia	-11235
▁Leads	-11236
▁Merab	-11237
▁Milka	-11238
▁Offer	-11239
▁Ofrah	-11240
▁Paula	-11241
▁Salma	-11242
▁Sefar	-11243
▁Start	-11244
▁Trial	-11245
▁Troub	-11246
▁Tulun	-11247
▁Uriel	-11248
▁admit	-11249
▁begun	-11250
▁brush	-11251
▁debts	-11252
▁drama	-11253
▁estra	-11254
▁evils	-11255
▁farms	-11256
▁foxes	-11257
▁glean	-11258
▁globe	-11259
▁grant	-11260
▁hadad	-11261
▁hairs	-11262
▁hosts	-11263
▁hunta	-11264
▁incom	-11265
▁meals	-11266
▁minor	-11267
▁overr	-11268
▁prest	-11269
▁purch	-11270
▁reply	-11271
▁rumor	-11272
▁sched	-11273
▁scope	-11274
▁sower	-11275
▁stalk	-11276
▁stork	-11277
▁strik	-11278
▁texts	-11279
▁towas	-11280
▁trous	-11281
▁vowed	-11282
▁warda	-11283
Babilon	-11284
aughter	-11285
control	-11286
ression	-11287
seventh	-11288
witness	-11289
▁Adolfo	-11290
▁Ahilud	-11291
▁Ahiman	-11292
▁Ararat	-11293
▁Asaiah	-11294
▁Ashtor	-11295
▁Barnea	-11296
▁Bilhan	-11297
▁Eliada	-11298
▁Elizur	-11299
▁Giddel	-11300
▁Happen	-11301
▁Hashum	-11302
▁Horesh	-11303
▁Horite	-11304
▁Ibleam	-11305
▁Jahath	-11306
▁Jehudi	-11307
▁Jether	-11308
▁Jethro	-11309
▁Kathar	-11310
▁Listen	-11311
▁Livija	-11312
▁Mahlah	-11313
▁Milcom	-11314
▁Nekoda	-11315
▁Neriah	-11316
▁Nimshi	-11317
▁Oholah	-11318
▁Ophrah	-11319
▁Paseah	-11320
▁Pontus	-11321
▁Samlah	-11322
▁Saskat	-11323
▁Sheshb	-11324
▁Syrian	-11325
▁Tumoro	-11326
▁Unless	-11327
▁Yahweh	-11328
▁Zaanan	-11329
▁Zeresh	-11330
▁afford	-11331
▁annual	-11332
▁babies	-11333
▁biting	-11334
▁bowmen	-11335
▁charge	-11336
▁consul	-11337
▁convey	-11338
▁devast	-11339
▁excuse	-11340
▁exiled	-11341
▁global	-11342
▁hinder	-11343
▁ignore	-11344
▁income	-11345
▁infect	-11346
▁native	-11347
▁nearer	-11348
▁oppose	-11349
▁ovakom	-11350
▁overly	-11351
▁parsha	-11352
▁paying	-11353
▁perish	-11354
▁pocket	-11355
▁psalms	-11356
▁pushed	-11357
▁recipe	-11358
▁regain	-11359
▁reinst	-11360
▁restor	-11361
▁shares	-11362
▁shower	-11363
▁skrape	-11364
▁slight	-11365
▁spades	-11366
▁suffic	-11367
▁taller	-11368
▁target	-11369
▁tasted	-11370
▁tenths	-11371
▁toilet	-11372
▁topics	-11373
▁tricks	-11374
▁uncons	-11375
▁undone	-11376
▁unfair	-11377
▁upside	-11378
▁utmost	-11379
▁weekly	-11380
etheless	-11381
opotamia	-11382
ordinary	-11383
oubtedly	-11384
▁Alexand	-11385
▁Answers	-11386
▁Azmavet	-11387
▁Belfast	-11388
▁Chinner	-11389
▁Cilicia	-11390
▁Courage	-11391
▁Damaris	-11392
▁Edomite	-11393
▁Example	-11394
▁Gerizim	-11395
▁Gideoni	-11396
▁Gittite	-11397
▁Hanamel	-11398
▁Hattush	-11399
▁Hodevah	-11400
▁Joiakim	-11401
▁Jokshan	-11402
▁Keeping	-11403
▁Kenites	-11404
▁Keturah	-11405
▁Maresha	-11406
▁Meshech	-11407
▁Moladah	-11408
▁Ontario	-11409
▁Pedaaya	-11410
▁Pedaiah	-11411
▁Persian	-11412
▁Pontius	-11413
▁Prepare	-11414
▁Reflect	-11415
▁Shaphat	-11416
▁Shedeur	-11417
▁Worship	-11418
▁abusive	-11419
▁acquire	-11420
▁adviser	-11421
▁archers	-11422
▁biscuit	-11423
▁captive	-11424
▁coconut	-11425
▁concent	-11426
▁confuse	-11427
▁cripple	-11428
▁emerald	-11429
▁empathy	-11430
▁gateman	-11431
▁happens	-11432
▁harmful	-11433
▁hearers	-11434
▁honored	-11435
▁intimid	-11436
▁missing	-11437
▁opposed	-11438
▁outback	-11439
▁pleases	-11440
▁prisons	-11441
▁product	-11442
▁proverb	-11443
▁sailors	-11444
▁showers	-11445
▁sitting	-11446
▁somehow	-11447
▁stirred	-11448
▁sustain	-11449
▁torture	-11450
▁urgency	-11451
▁wanting	-11452
▁welfare	-11453
cientious	-11454
itionally	-11455
▁Actually	-11456
▁Adoniram	-11457
▁Azmaveth	-11458
▁Balykchy	-11459
▁Chaldaea	-11460
▁Elifelet	-11461
▁MEMORIAL	-11462
▁Mareshah	-11463
▁Meshelem	-11464
▁Nicholas	-11465
▁Pedahzur	-11466
▁Shemiram	-11467
▁Shimshai	-11468
▁Speaking	-11469
▁Stephany	-11470
▁Tattenai	-11471
▁Teaching	-11472
▁Togarmah	-11473
▁Whenever	-11474
▁Yourself	-11475
▁Zebadaya	-11476
▁Zebadiah	-11477
▁abortion	-11478
▁accompan	-11479
▁arriving	-11480
▁chairman	-11481
▁circling	-11482
▁commands	-11483
▁converse	-11484
▁convince	-11485
▁crowning	-11486
▁drunkard	-11487
▁enslaved	-11488
▁entering	-11489
▁envelope	-11490
▁executed	-11491
▁exhorted	-11492
▁feathers	-11493
▁fighters	-11494
▁honestly	-11495
▁inkrease	-11496
▁intended	-11497
▁internet	-11498
▁kommands	-11499
▁location	-11500
▁majishan	-11501
▁miracles	-11502
▁mourning	-11503
▁opreshon	-11504
▁petition	-11505
▁recalled	-11506
▁rejoiced	-11507
▁sanctify	-11508
▁sapphire	-11509
▁selected	-11510
▁sometime	-11511
▁somewhat	-11512
▁striving	-11513
▁Christine	-11514
▁Eliphelet	-11515
▁Frederick	-11516
▁Hemsworth	-11517
▁Jehozabad	-11518
▁Katharina	-11519
▁Messianic	-11520
▁Moabitess	-11521
▁Oholibama	-11522
▁Perizzite	-11523
▁Philistia	-11524
▁Shelumiel	-11525
▁Sherebaya	-11526
▁Sherebiah	-11527
▁Stephanie	-11528
▁Zarephath	-11529
▁abundance	-11530
▁conducted	-11531
▁construct	-11532
▁cupbearer	-11533
▁delegates	-11534
▁direcshon	-11535
▁entrusted	-11536
▁fireplace	-11537
▁grandpapa	-11538
▁immigrant	-11539
▁indicated	-11540
▁insurance	-11541
▁konfushon	-11542
▁persevere	-11543
▁president	-11544
▁returning	-11545
▁scattered	-11546
▁sincerely	-11547
▁structure	-11548
▁subjected	-11549
▁twentieth	-11550
▁villagers	-11551
▁Government	-11552
▁Oholibamah	-11553
▁Undeserved	-11554
▁concerning	-11555
▁difficulty	-11556
▁explaining	-11557
▁impression	-11558
▁influences	-11559
▁karpenters	-11560
▁phonograph	-11561
▁rebuilding	-11562
▁refreshing	-11563
▁represents	-11564
▁submissive	-11565
▁sufficient	-11566
▁travelling	-11567
▁uncovering	-11568
▁Ammishaddai	-11569
▁Cherethites	-11570
▁Christendom	-11571
▁Destruction	-11572
▁Mesopotamia	-11573
▁Sheshbazzar	-11574
▁Zurishaddai	-11575
▁deliverance	-11576
▁discernment	-11577
▁disciplined	-11578
▁interesting	-11579
▁measurement	-11580
▁publication	-11581
▁shepherding	-11582
▁transferred	-11583
▁unconscious	-11584
▁Netophathite	-11585
▁Publications	-11586
▁occasionally	-11587
▁presentation	-11588
▁respectfully	-11589
▁tribulations	-11590
▁conscientious	-11591
▁personalities	-11592
▁Understandably	-11593
▁representative	-11594
Ho	-11595
IR	-11596
OW	-11597
ns	-11598
uf	-11599
).”	-11600
.”)	-11601
Bet	-11602
DAY	-11603
See	-11604
Wot	-11605
ads	-11606
alu	-11607
bow	-11608
cia	-11609
dan	-11610
die	-11611
dor	-11612
fas	-11613
gas	-11614
gat	-11615
inc	-11616
ipi	-11617
lim	-11618
lym	-11619
mor	-11620
nyk	-11621
oys	-11622
pse	-11623
rep	-11624
rit	-11625
who	-11626
zon	-11627
▁69	-11628
▁Cr	-11629
▁Ey	-11630
▁Ga	-11631
▁Mc	-11632
▁Oz	-11633
▁Pi	-11634
▁kp	-11635
▁ly	-11636
,600	-11637
,700	-11638
Arba	-11639
Hope	-11640
Jair	-11641
NESS	-11642
Peor	-11643
acah	-11644
acch	-11645
akat	-11646
alax	-11647
arah	-11648
aret	-11649
atap	-11650
bite	-11651
bone	-11652
cest	-11653
cond	-11654
door	-11655
east	-11656
elek	-11657
ench	-11658
erly	-11659
fere	-11660
hook	-11661
hosa	-11662
ihor	-11663
ilem	-11664
iler	-11665
illo	-11666
ilot	-11667
ippi	-11668
irty	-11669
itha	-11670
ivia	-11671
lely	-11672
lemn	-11673
lend	-11674
lion	-11675
odan	-11676
ohar	-11677
oled	-11678
omer	-11679
oors	-11680
orim	-11681
orla	-11682
othe	-11683
quis	-11684
rous	-11685
shua	-11686
stal	-11687
supp	-11688
trow	-11689
viet	-11690
void	-11691
wart	-11692
wash	-11693
west	-11694
wick	-11695
zing	-11696
▁105	-11697
▁106	-11698
▁120	-11699
▁124	-11700
▁125	-11701
▁130	-11702
▁142	-11703
▁612	-11704
▁Akw	-11705
▁Avv	-11706
▁Azz	-11707
▁Bam	-11708
▁Bir	-11709
▁Bob	-11710
▁Bud	-11711
▁Cal	-11712
▁Hak	-11713
▁Hep	-11714
▁Ins	-11715
▁Jun	-11716
▁Kem	-11717
▁Kol	-11718
▁Lef	-11719
▁Loc	-11720
▁Pat	-11721
▁Pol	-11722
▁Pur	-11723
▁Run	-11724
▁Sun	-11725
▁Tra	-11726
▁Wot	-11727
▁Zof	-11728
▁ate	-11729
▁aut	-11730
▁cal	-11731
▁cer	-11732
▁cle	-11733
▁fam	-11734
▁jac	-11735
▁lad	-11736
▁lod	-11737
▁lyr	-11738
▁mud	-11739
▁nav	-11740
▁pip	-11741
▁ran	-11742
▁rim	-11743
▁sed	-11744
▁ult	-11745
▁unm	-11746
,400.	-11747
,600.	-11748
5,000	-11749
Hanan	-11750
Simon	-11751
Wiked	-11752
again	-11753
agasy	-11754
akuya	-11755
arlin	-11756
board	-11757
cries	-11758
earch	-11759
ekend	-11760
emost	-11761
ester	-11762
geber	-11763
ields	-11764
illem	-11765
inese	-11766
itaya	-11767
itute	-11768
loved	-11769
otton	-11770
pipol	-11771
third	-11772
uetta	-11773
▁1922	-11774
▁1960	-11775
▁1965	-11776
▁Abdi	-11777
▁Arah	-11778
▁Arba	-11779
▁Barr	-11780
▁Bero	-11781
▁Chem	-11782
▁Chim	-11783
▁Dodo	-11784
▁Draw	-11785
▁Elat	-11786
▁Graz	-11787
▁Havv	-11788
▁Hena	-11789
▁Hens	-11790
▁Kaia	-11791
▁Keri	-11792
▁Kibr	-11793
▁LORD	-11794
▁Mold	-11795
▁Nero	-11796
▁Ofir	-11797
▁Olym	-11798
▁Othn	-11799
▁Path	-11800
▁Rain	-11801
▁Reph	-11802
▁Road	-11803
▁SOME	-11804
▁Shan	-11805
▁Shep	-11806
▁Towa	-11807
▁Yong	-11808
▁chin	-11809
▁chry	-11810
▁clim	-11811
▁desp	-11812
▁efod	-11813
▁elem	-11814
▁ener	-11815
▁enth	-11816
▁feat	-11817
▁fork	-11818
▁gown	-11819
▁hers	-11820
▁imit	-11821
▁inex	-11822
▁lick	-11823
▁magn	-11824
▁mast	-11825
▁ment	-11826
▁nuns	-11827
▁ogas	-11828
▁pipe	-11829
▁reun	-11830
▁rose	-11831
▁rust	-11832
▁shed	-11833
▁stew	-11834
▁stit	-11835
▁stri	-11836
▁stro	-11837
▁tech	-11838
▁tons	-11839
▁unlo	-11840
▁wage	-11841
Profet	-11842
aeolog	-11843
ailand	-11844
apture	-11845
athaim	-11846
attles	-11847
barnea	-11848
coniah	-11849
doings	-11850
elines	-11851
embers	-11852
father	-11853
haired	-11854
ishing	-11855
itical	-11856
necked	-11857
nykarl	-11858
orpion	-11859
ounced	-11860
ounded	-11861
ozenai	-11862
riches	-11863
taavah	-11864
▁Abiel	-11865
▁Achan	-11866
▁Adams	-11867
▁Akbor	-11868
▁Allen	-11869
▁Annas	-11870
▁Assir	-11871
▁Azeka	-11872
▁Cause	-11873
▁Eshba	-11874
▁Favor	-11875
▁Gaash	-11876
▁Hamul	-11877
▁Harod	-11878
▁Harry	-11879
▁Inter	-11880
▁Irish	-11881
▁Manah	-11882
▁Melek	-11883
▁Millo	-11884
▁Mouth	-11885
▁Nepal	-11886
▁Nicol	-11887
▁Praet	-11888
▁Purim	-11889
▁Sallu	-11890
▁Sered	-11891
▁Thing	-11892
▁Tofet	-11893
▁Using	-11894
▁Uzzah	-11895
▁Whole	-11896
▁Zacch	-11897
▁Zelop	-11898
▁Zohar	-11899
▁adapt	-11900
▁alien	-11901
▁armor	-11902
▁await	-11903
▁barri	-11904
▁bears	-11905
▁calam	-11906
▁champ	-11907
▁chann	-11908
▁cited	-11909
▁civil	-11910
▁coins	-11911
▁delic	-11912
▁dimin	-11913
▁doers	-11914
▁evalu	-11915
▁fever	-11916
▁foods	-11917
▁frank	-11918
▁gerah	-11919
▁holds	-11920
▁katap	-11921
▁klaim	-11922
▁legit	-11923
▁liked	-11924
▁merch	-11925
▁ocean	-11926
▁pools	-11927
▁prone	-11928
▁prose	-11929
▁reput	-11930
▁revel	-11931
▁ropes	-11932
▁scene	-11933
▁shelf	-11934
▁shirt	-11935
▁skins	-11936
▁swods	-11937
▁theme	-11938
▁threw	-11939
▁tread	-11940
▁trips	-11941
▁tunik	-11942
▁twins	-11943
▁unass	-11944
▁users	-11945
against	-11946
formant	-11947
ignific	-11948
parable	-11949
pentant	-11950
quisite	-11951
warming	-11952
▁22,000	-11953
▁40,000	-11954
▁Acting	-11955
▁Akwila	-11956
▁Ashbel	-11957
▁Azekah	-11958
▁Beerot	-11959
▁Bichri	-11960
▁Digest	-11961
▁Hanoch	-11962
▁Hushah	-11963
▁Inside	-11964
▁Jarmut	-11965
▁Joktan	-11966
▁Kaldea	-11967
▁Kemosh	-11968
▁Kenizz	-11969
▁Living	-11970
▁Maakat	-11971
▁Malluk	-11972
▁Medeba	-11973
▁Meunim	-11974
▁Mizpeh	-11975
▁Molech	-11976
▁Nemuel	-11977
▁Nergal	-11978
▁Nimrod	-11979
▁Potifa	-11980
▁Relate	-11981
▁Return	-11982
▁Shihor	-11983
▁Shilon	-11984
▁Siloam	-11985
▁Soviet	-11986
▁Steven	-11987
▁Taanak	-11988
▁Takuya	-11989
▁Tiberi	-11990
▁Trobol	-11991
▁Willis	-11992
▁Zophar	-11993
▁adults	-11994
▁ancest	-11995
▁assume	-11996
▁banner	-11997
▁barren	-11998
▁boldly	-11999
▁bullet	-12000
▁calmly	-12001
▁claims	-12002
▁courts	-12003
▁covers	-12004
▁create	-12005
▁darlin	-12006
▁ensure	-12007
▁extens	-12008
▁festiv	-12009
▁flying	-12010
▁fulfil	-12011
▁hunger	-12012
▁knives	-12013
▁kousin	-12014
▁kpatak	-12015
▁lacked	-12016
▁linked	-12017
▁misund	-12018
▁motion	-12019
▁peacem	-12020
▁ravens	-12021
▁retain	-12022
▁rubbed	-12023
▁sadnes	-12024
▁salute	-12025
▁singol	-12026
▁solely	-12027
▁solemn	-12028
▁speaks	-12029
▁status	-12030
▁steady	-12031
▁thinks	-12032
▁unbapt	-12033
▁underm	-12034
▁urgent	-12035
▁widely	-12036
Evribody	-12037
Filistia	-12038
Jeremaya	-12039
entially	-12040
lessness	-12041
▁120,000	-12042
▁400,000	-12043
▁Chemosh	-12044
▁Chinese	-12045
▁Compare	-12046
▁Danites	-12047
▁Delaaya	-12048
▁Delaiah	-12049
▁Eshbaal	-12050
▁Filippi	-12051
▁Freedom	-12052
▁Hadoram	-12053
▁Henadad	-12054
▁Illustr	-12055
▁Isshaya	-12056
▁Jarmuth	-12057
▁Jozadak	-12058
▁Kaiafas	-12059
▁Meeting	-12060
▁Meraiot	-12061
▁Mizraim	-12062
▁Othniel	-12063
▁Putting	-12064
▁Seventy	-12065
▁Shuhite	-12066
▁Soldier	-12067
▁Someone	-12068
▁Stadium	-12069
▁Tandroy	-12070
▁Warwick	-12071
▁Western	-12072
▁adverse	-12073
▁anguish	-12074
▁bandage	-12075
▁belongs	-12076
▁calling	-12077
▁circled	-12078
▁conquer	-12079
▁contend	-12080
▁crystal	-12081
▁disrupt	-12082
▁enables	-12083
▁endures	-12084
▁enslave	-12085
▁favored	-12086
▁fervent	-12087
▁firearm	-12088
▁gravity	-12089
▁grouped	-12090
▁harbour	-12091
▁heating	-12092
▁implies	-12093
▁infancy	-12094
▁inkhorn	-12095
▁legally	-12096
▁muscles	-12097
▁objects	-12098
▁offence	-12099
▁oneself	-12100
▁orderly	-12101
▁ostrich	-12102
▁pawaful	-12103
▁plating	-12104
▁players	-12105
▁poorest	-12106
▁quicker	-12107
▁reacted	-12108
▁recount	-12109
▁renewed	-12110
▁seating	-12111
▁session	-12112
▁systems	-12113
▁thereby	-12114
▁threats	-12115
▁tightly	-12116
▁watched	-12117
▁watered	-12118
▁weekend	-12119
▁weighty	-12120
▁wording	-12121
▁worried	-12122
criptural	-12123
▁Applying	-12124
▁Archives	-12125
▁Betsaida	-12126
▁Complete	-12127
▁Festival	-12128
▁Henschel	-12129
▁Jeconiah	-12130
▁Jeremoth	-12131
▁Jerimoth	-12132
▁Jeshaiah	-12133
▁Maintain	-12134
▁Malagasy	-12135
▁Matthews	-12136
▁Nazarene	-12137
▁Netanaya	-12138
▁Preacher	-12139
▁Research	-12140
▁Temanite	-12141
▁Thailand	-12142
▁absorbed	-12143
▁advanced	-12144
▁apostate	-12145
▁avoiding	-12146
▁awaiting	-12147
▁blackber	-12148
▁citizens	-12149
▁damaging	-12150
▁decisive	-12151
▁detailed	-12152
▁disposed	-12153
▁disputes	-12154
▁emphasis	-12155
▁expelled	-12156
▁expenses	-12157
▁foremost	-12158
▁formerly	-12159
▁gripping	-12160
▁highways	-12161
▁hilltops	-12162
▁honoring	-12163
▁infected	-12164
▁inviting	-12165
▁longtime	-12166
▁mistreat	-12167
▁obstacle	-12168
▁parental	-12169
▁passport	-12170
▁pictures	-12171
▁planning	-12172
▁prisoned	-12173
▁produces	-12174
▁punished	-12175
▁pursuing	-12176
▁reproach	-12177
▁restrict	-12178
▁stealing	-12179
▁sycamore	-12180
▁terrible	-12181
▁trousers	-12182
▁watchful	-12183
▁Benjamite	-12184
▁Bethzatha	-12185
▁Blessings	-12186
▁Character	-12187
▁Christoph	-12188
▁Dannykarl	-12189
▁Following	-12190
▁Happiness	-12191
▁Informant	-12192
▁Kiriataim	-12193
▁Korahites	-12194
▁Mattitaya	-12195
▁Metuselah	-12196
▁Otherwise	-12197
▁Sefarvaim	-12198
▁Shebanaya	-12199
▁Shebaniah	-12200
▁Zacchaeus	-12201
▁Zelofehad	-12202
▁basically	-12203
▁commented	-12204
▁connected	-12205
▁corrected	-12206
▁delighted	-12207
▁demanding	-12208
▁directing	-12209
▁dominated	-12210
▁elsewhere	-12211
▁exception	-12212
▁exquisite	-12213
▁favorable	-12214
▁genuinely	-12215
▁greetings	-12216
▁guarantee	-12217
▁hardships	-12218
▁imitation	-12219
▁innermost	-12220
▁instances	-12221
▁interfere	-12222
▁interview	-12223
▁introduce	-12224
▁marvelous	-12225
▁movements	-12226
▁nightfall	-12227
▁ostriches	-12228
▁persuaded	-12229
▁potential	-12230
▁pregnancy	-12231
▁promising	-12232
▁remembers	-12233
▁requested	-12234
▁revealing	-12235
▁sorrowful	-12236
▁stumbling	-12237
▁temporary	-12238
▁unchanged	-12239
▁uncomfort	-12240
▁undertake	-12241
▁wanderers	-12242
▁whitewash	-12243
▁Alexandria	-12244
▁Australian	-12245
▁Friendship	-12246
▁Jezreelite	-12247
▁Mattithiah	-12248
▁Praetorium	-12249
▁Shunammite	-12250
▁Throughout	-12251
▁Zelophehad	-12252
▁admonished	-12253
▁advantages	-12254
▁attendance	-12255
▁belongings	-12256
▁bodyguards	-12257
▁boundaries	-12258
▁comforters	-12259
▁complained	-12260
▁compromise	-12261
▁contending	-12262
▁countryman	-12263
▁delightful	-12264
▁depression	-12265
▁emphasized	-12266
▁generosity	-12267
▁highlights	-12268
▁indication	-12269
▁initiative	-12270
▁insignific	-12271
▁kpatakpata	-12272
▁legitimate	-12273
▁oppression	-12274
▁outworking	-12275
▁presenting	-12276
▁remarkable	-12277
▁remembered	-12278
▁separation	-12279
▁sheepskins	-12280
▁subjection	-12281
▁tanksgivin	-12282
▁thoroughly	-12283
▁unassigned	-12284
▁unnumbered	-12285
▁wanderings	-12286
▁worthwhile	-12287
▁Consolation	-12288
▁Nonetheless	-12289
▁accompanied	-12290
▁accountable	-12291
▁description	-12292
▁distressing	-12293
▁distributed	-12294
▁frustration	-12295
▁householder	-12296
▁illustrates	-12297
▁inheritance	-12298
▁materialism	-12299
▁nationality	-12300
▁schoolmates	-12301
▁selfishness	-12302
▁unrepentant	-12303
▁woodworkers	-12304
▁Additionally	-12305
▁Scripturally	-12306
▁arrangements	-12307
▁breastplates	-12308
▁heartwarming	-12309
▁imprisonment	-12310
▁incomparable	-12311
▁neighborhood	-12312
▁unscriptural	-12313
▁demonstration	-12314
▁extraordinary	-12315
▁materialistic	-12316
▁organizational	-12317
.4	-12318
2,	-12319
2;	-12320
5,	-12321
Ad	-12322
Bl	-12323
It	-12324
KE	-12325
LL	-12326
Or	-12327
TH	-12328
jw	-12329
kk	-12330
kn	-12331
kr	-12332
wr	-12333
yc	-12334
yl	-12335
100	-12336
ARY	-12337
Bec	-12338
Bel	-12339
Ben	-12340
asp	-12341
asy	-12342
ava	-12343
awa	-12344
aze	-12345
bez	-12346
eem	-12347
eka	-12348
fis	-12349
gic	-12350
gio	-12351
gub	-12352
hal	-12353
heg	-12354
him	-12355
hod	-12356
iha	-12357
iny	-12358
jon	-12359
kee	-12360
kol	-12361
lav	-12362
nap	-12363
ndr	-12364
oom	-12365
opl	-12366
oul	-12367
pic	-12368
put	-12369
rug	-12370
sam	-12371
sky	-12372
sof	-12373
sun	-12374
uda	-12375
umc	-12376
ums	-12377
vad	-12378
van	-12379
▁96	-12380
▁Co	-12381
▁Cy	-12382
▁Eb	-12383
▁Ho	-12384
▁NO	-12385
▁PI	-12386
▁RE	-12387
▁Sk	-12388
▁je	-12389
Come	-12390
Gedi	-12391
LINE	-12392
Nine	-12393
aber	-12394
abus	-12395
adai	-12396
adoc	-12397
aham	-12398
akah	-12399
alak	-12400
alle	-12401
alue	-12402
amon	-12403
anas	-12404
apid	-12405
areb	-12406
ares	-12407
asts	-12408
audi	-12409
bean	-12410
chen	-12411
chor	-12412
coal	-12413
edad	-12414
etai	-12415
fear	-12416
gedi	-12417
hard	-12418
hite	-12419
hoon	-12420
icol	-12421
idia	-12422
ifer	-12423
ijon	-12424
ilos	-12425
inea	-12426
inst	-12427
isam	-12428
iven	-12429
kill	-12430
leel	-12431
load	-12432
lude	-12433
make	-12434
nath	-12435
neam	-12436
odak	-12437
omew	-12438
onah	-12439
onga	-12440
peri	-12441
reci	-12442
rily	-12443
rina	-12444
rink	-12445
rite	-12446
ryce	-12447
than	-12448
uela	-12449
uluk	-12450
umes	-12451
unni	-12452
wear	-12453
xual	-12454
▁104	-12455
▁109	-12456
▁116	-12457
▁126	-12458
▁129	-12459
▁141	-12460
▁AND	-12461
▁Aph	-12462
▁Bul	-12463
▁EPH	-12464
▁Esp	-12465
▁Fis	-12466
▁Ikk	-12467
▁Iri	-12468
▁Kom	-12469
▁Lif	-12470
▁Lus	-12471
▁Lys	-12472
▁MAN	-12473
▁Mir	-12474
▁Mit	-12475
▁Mor	-12476
▁Mut	-12477
▁Pad	-12478
▁Pag	-12479
▁Pam	-12480
▁Pan	-12481
▁Ray	-12482
▁Ter	-12483
▁Thy	-12484
▁Tor	-12485
▁WEY	-12486
▁WHY	-12487
▁Wil	-12488
▁Yan	-12489
▁bes	-12490
▁dar	-12491
▁dye	-12492
▁enh	-12493
▁fan	-12494
▁gum	-12495
▁hit	-12496
▁hug	-12497
▁kis	-12498
▁nug	-12499
▁pom	-12500
▁rof	-12501
▁swe	-12502
▁tol	-12503
▁tor	-12504
▁typ	-12505
▁unp	-12506
BRARY	-12507
Broda	-12508
Egypt	-12509
Hamat	-12510
Stand	-12511
acity	-12512
adays	-12513
addua	-12514
aguay	-12515
akkuk	-12516
akons	-12517
allel	-12518
anges	-12519
ansas	-12520
ardis	-12521
arras	-12522
arter	-12523
astus	-12524
blood	-12525
clair	-12526
edged	-12527
eland	-12528
enaah	-12529
ensen	-12530
eropl	-12531
ersby	-12532
ethai	-12533
fifty	-12534
fruit	-12535
garet	-12536
heart	-12537
iades	-12538
ibute	-12539
ierry	-12540
ieved	-12541
ighed	-12542
igion	-12543
ilion	-12544
isted	-12545
italy	-12546
itans	-12547
kenaz	-12548
ndown	-12549
orant	-12550
penaz	-12551
shean	-12552
sunam	-12553
tered	-12554
uebec	-12555
vices	-12556
zabel	-12557
zibub	-12558
▁1910	-12559
▁1915	-12560
▁1936	-12561
▁1951	-12562
▁1961	-12563
▁1977	-12564
▁1991	-12565
▁1992	-12566
▁1997	-12567
▁2002	-12568
▁2005	-12569
▁2007	-12570
▁2010	-12571
▁Aner	-12572
▁Army	-12573
▁Asen	-12574
▁Away	-12575
▁Beel	-12576
▁Cant	-12577
▁Cool	-12578
▁Deac	-12579
▁Efah	-12580
▁Erit	-12581
▁Esar	-12582
▁Ezem	-12583
▁Fake	-12584
▁Farm	-12585
▁Gain	-12586
▁Gift	-12587
▁Ginn	-12588
▁Hach	-12589
▁Half	-12590
▁Hate	-12591
▁Helk	-12592
▁Hild	-12593
▁Igal	-12594
▁Ijon	-12595
▁Jenn	-12596
▁Kant	-12597
▁Kill	-12598
▁Lebo	-12599
▁Mash	-12600
▁Mati	-12601
▁Merc	-12602
▁Meth	-12603
▁Nain	-12604
▁Neph	-12605
▁Noph	-12606
▁Omar	-12607
▁Onam	-12608
▁Pele	-12609
▁Prin	-12610
▁Pull	-12611
▁Rish	-12612
▁Sant	-12613
▁Sara	-12614
▁Scot	-12615
▁Soko	-12616
▁Spec	-12617
▁Taze	-12618
▁Thru	-12619
▁Tins	-12620
▁Ulam	-12621
▁Wall	-12622
▁ZECH	-12623
▁Ziha	-12624
▁Ziza	-12625
▁abst	-12626
▁ages	-12627
▁anim	-12628
▁aver	-12629
▁awar	-12630
▁axes	-12631
▁biro	-12632
▁blan	-12633
▁cash	-12634
▁clar	-12635
▁cush	-12636
▁diss	-12637
▁doer	-12638
▁drug	-12639
▁echo	-12640
▁elev	-12641
▁fada	-12642
▁fuel	-12643
▁grac	-12644
▁joke	-12645
▁kage	-12646
▁kons	-12647
▁ling	-12648
▁peer	-12649
▁prec	-12650
▁rabb	-12651
▁rage	-12652
▁rail	-12653
▁resc	-12654
▁seam	-12655
▁silk	-12656
▁slip	-12657
▁stim	-12658
▁symp	-12659
▁tait	-12660
▁trek	-12661
▁unem	-12662
▁unth	-12663
▁vary	-12664
Anytin	-12665
Reuben	-12666
Rimmon	-12667
adocia	-12668
audius	-12669
cement	-12670
elbach	-12671
ercise	-12672
haddon	-12673
horses	-12674
ibbean	-12675
images	-12676
inning	-12677
iolent	-12678
isions	-12679
ndrome	-12680
rehens	-12681
riched	-12682
rified	-12683
solite	-12684
utions	-12685
veland	-12686
verted	-12687
▁2,500	-12688
▁Adiel	-12689
▁Ahava	-12690
▁Aksah	-12691
▁Alber	-12692
▁Antip	-12693
▁Avvim	-12694
▁Azgad	-12695
▁Bezai	-12696
▁Binea	-12697
▁Black	-12698
▁Bring	-12699
▁Bunni	-12700
▁Capht	-12701
▁Crete	-12702
▁Daber	-12703
▁Demas	-12704
▁Eddie	-12705
▁Fight	-12706
▁Galal	-12707
▁Gareb	-12708
▁Gatam	-12709
▁Golan	-12710
▁Gozan	-12711
▁Grand	-12712
▁Habor	-12713
▁Hadid	-12714
▁Halah	-12715
▁Hanok	-12716
▁Helez	-12717
▁Hobab	-12718
▁Horse	-12719
▁Ibhar	-12720
▁Ishvi	-12721
▁Jakin	-12722
▁Jetur	-12723
▁Kenya	-12724
▁Leach	-12725
▁Light	-12726
▁Lydda	-12727
▁Mahal	-12728
▁Mehet	-12729
▁Might	-12730
▁Minor	-12731
▁Naiot	-12732
▁Ophel	-12733
▁Orion	-12734
▁Pahat	-12735
▁Parah	-12736
▁Pelet	-12737
▁Perga	-12738
▁Pryce	-12739
▁Ready	-12740
▁Reign	-12741
▁Salem	-12742
▁Segub	-12743
▁Shabb	-12744
▁Shalm	-12745
▁Shame	-12746
▁Sheep	-12747
▁Sheth	-12748
▁Sweet	-12749
▁TODAY	-12750
▁Tahat	-12751
▁Tibni	-12752
▁Tisha	-12753
▁Words	-12754
▁Yaros	-12755
▁abuse	-12756
▁airpl	-12757
▁amebo	-12758
▁asher	-12759
▁boots	-12760
▁brick	-12761
▁costs	-12762
▁draft	-12763
▁draws	-12764
▁energ	-12765
▁excus	-12766
▁fails	-12767
▁fills	-12768
▁finds	-12769
▁flags	-12770
▁flash	-12771
▁flute	-12772
▁galax	-12773
▁grows	-12774
▁homer	-12775
▁immod	-12776
▁jolly	-12777
▁kanda	-12778
▁knock	-12779
▁letas	-12780
▁malle	-12781
▁mater	-12782
▁minim	-12783
▁molds	-12784
▁owned	-12785
▁peers	-12786
▁pence	-12787
▁posts	-12788
▁prost	-12789
▁races	-12790
▁rever	-12791
▁revol	-12792
▁rural	-12793
▁saint	-12794
▁shall	-12795
▁shift	-12796
▁sober	-12797
▁spray	-12798
▁straw	-12799
▁swift	-12800
▁tails	-12801
▁toler	-12802
▁trace	-12803
▁tresp	-12804
▁veget	-12805
▁warns	-12806
▁wider	-12807
▁worst	-12808
▁yanga	-12809
Because	-12810
ability	-12811
aration	-12812
astrous	-12813
ciences	-12814
eration	-12815
erstone	-12816
essions	-12817
incense	-12818
instrum	-12819
iration	-12820
ishment	-12821
nesaret	-12822
onsider	-12823
orpions	-12824
ounding	-12825
pileser	-12826
planted	-12827
respect	-12828
ringing	-12829
vessels	-12830
▁Achbor	-12831
▁Agabus	-12832
▁Ahisam	-12833
▁Arioch	-12834
▁Azriel	-12835
▁Becher	-12836
▁Beroea	-12837
▁Bilgah	-12838
▁Commun	-12839
▁Cyrene	-12840
▁Difren	-12841
▁Eshcol	-12842
▁Eshkol	-12843
▁Geshem	-12844
▁Helper	-12845
▁Hepher	-12846
▁Hodaya	-12847
▁Hodiah	-12848
▁Hoglah	-12849
▁Ikkesh	-12850
▁Jaddua	-12851
▁Janoah	-12852
▁Jensen	-12853
▁Julius	-12854
▁Justus	-12855
▁Kelita	-12856
▁Madrid	-12857
▁Martin	-12858
▁Matred	-12859
▁Mattan	-12860
▁Memfis	-12861
▁Mibsam	-12862
▁Miller	-12863
▁Mishma	-12864
▁Mizzah	-12865
▁Naioth	-12866
▁ONLINE	-12867
▁Pagiel	-12868
▁Pahath	-12869
▁Panama	-12870
▁Philem	-12871
▁Refuge	-12872
▁Sardis	-12873
▁Sergio	-12874
▁Shafat	-12875
▁Shamir	-12876
▁Shepad	-12877
▁Shobab	-12878
▁Siddim	-12879
▁Sirene	-12880
▁Tahath	-12881
▁Tishbe	-12882
▁Trials	-12883
▁Wallen	-12884
▁Yankee	-12885
▁Zillah	-12886
▁akshon	-12887
▁apolog	-12888
▁attire	-12889
▁barber	-12890
▁barrak	-12891
▁begins	-12892
▁births	-12893
▁boxing	-12894
▁bucket	-12895
▁budget	-12896
▁cancel	-12897
▁combat	-12898
▁compet	-12899
▁cotton	-12900
▁crowds	-12901
▁curved	-12902
▁darics	-12903
▁drinks	-12904
▁eskuse	-12905
▁exhort	-12906
▁exiles	-12907
▁factor	-12908
▁fertil	-12909
▁fierce	-12910
▁floors	-12911
▁fooled	-12912
▁geneal	-12913
▁gently	-12914
▁gerahs	-12915
▁golden	-12916
▁habits	-12917
▁handwr	-12918
▁headed	-12919
▁induce	-12920
▁injure	-12921
▁injury	-12922
▁invest	-12923
▁kidnap	-12924
▁kisses	-12925
▁larger	-12926
▁length	-12927
▁lyrics	-12928
▁mirror	-12929
▁missed	-12930
▁mostly	-12931
▁myrtle	-12932
▁nugget	-12933
▁olives	-12934
▁option	-12935
▁pained	-12936
▁palace	-12937
▁patina	-12938
▁philos	-12939
▁phrase	-12940
▁planet	-12941
▁reader	-12942
▁resear	-12943
▁riders	-12944
▁safaya	-12945
▁shorti	-12946
▁sooner	-12947
▁sports	-12948
▁spouse	-12949
▁strits	-12950
▁timing	-12951
▁unders	-12952
asonable	-12953
crushing	-12954
eroplane	-12955
inations	-12956
iousness	-12957
▁100,000	-12958
▁Abinoam	-12959
▁Azaraya	-12960
▁Bernice	-12961
▁British	-12962
▁Circuit	-12963
▁Control	-12964
▁Earlier	-12965
▁Elhanan	-12966
▁Fisical	-12967
▁Forever	-12968
▁General	-12969
▁Hamutal	-12970
▁Hananel	-12971
▁Hundred	-12972
▁Imitate	-12973
▁Isshiah	-12974
▁Jokneam	-12975
▁Justice	-12976
▁Kabzeel	-12977
▁LIBRARY	-12978
▁Lifting	-12979
▁Maharai	-12980
▁Malluch	-12981
▁Meremot	-12982
▁Miletus	-12983
▁Nations	-12984
▁Nikolai	-12985
▁Pioneer	-12986
▁Pisidia	-12987
▁Poverty	-12988
▁Psarras	-12989
▁Shebuel	-12990
▁Sheshai	-12991
▁Sokuluk	-12992
▁Tabitha	-12993
▁Teacher	-12994
▁Tertull	-12995
▁Thierry	-12996
▁Tiglath	-12997
▁Tikikus	-12998
▁Trinity	-12999
▁Trouble	-13000
▁Working	-13001
▁adolesc	-13002
▁adopted	-13003
▁adulter	-13004
▁affects	-13005
▁angrily	-13006
▁average	-13007
▁billion	-13008
▁blesses	-13009
▁channel	-13010
▁climate	-13011
▁clouded	-13012
▁colleag	-13013
▁consult	-13014
▁crossed	-13015
▁crowned	-13016
▁customs	-13017
▁cutters	-13018
▁daytime	-13019
▁defense	-13020
▁discipl	-13021
▁edition	-13022
▁effects	-13023
▁endnote	-13024
▁exclaim	-13025
▁exhaust	-13026
▁existed	-13027
▁extreme	-13028
▁failure	-13029
▁fifties	-13030
▁fleeing	-13031
▁focuses	-13032
▁freeing	-13033
▁goddess	-13034
▁greeted	-13035
▁handing	-13036
▁handled	-13037
▁hardest	-13038
▁kilomet	-13039
▁largest	-13040
▁manager	-13041
▁moments	-13042
▁needing	-13043
▁rainbow	-13044
▁raining	-13045
▁reduced	-13046
▁relieve	-13047
▁relijon	-13048
▁remains	-13049
▁revised	-13050
▁rubbing	-13051
▁shelter	-13052
▁simpler	-13053
▁skilled	-13054
▁suggest	-13055
▁sundown	-13056
▁surface	-13057
▁surplus	-13058
▁tactics	-13059
▁unfaith	-13060
▁warfare	-13061
▁warming	-13062
▁wealthy	-13063
▁weighed	-13064
▁worries	-13065
appadocia	-13066
witnesses	-13067
▁Adonikam	-13068
▁Arabians	-13069
▁Ashkenaz	-13070
▁Ashpenaz	-13071
▁Ashtarot	-13072
▁Blessing	-13073
▁Designed	-13074
▁Exercise	-13075
▁Habakkuk	-13076
▁Husbands	-13077
▁Jennifer	-13078
▁Kristina	-13079
▁Makpelah	-13080
▁Margaret	-13081
▁Material	-13082
▁Meremoth	-13083
▁Millions	-13084
▁Paraguay	-13085
▁Patience	-13086
▁Pleiades	-13087
▁Scotland	-13088
▁Shaaraim	-13089
▁Sinclair	-13090
▁Sometaim	-13091
▁Thyatira	-13092
▁Tiberias	-13093
▁Tishbite	-13094
▁Training	-13095
▁Yaroslav	-13096
▁Zipporah	-13097
▁abundant	-13098
▁attached	-13099
▁breaking	-13100
▁champion	-13101
▁charcoal	-13102
▁cheerful	-13103
▁clearing	-13104
▁commonly	-13105
▁composed	-13106
▁creditor	-13107
▁criminal	-13108
▁deepened	-13109
▁deserved	-13110
▁doctrine	-13111
▁dressing	-13112
▁dwelling	-13113
▁employer	-13114
▁enriched	-13115
▁fastened	-13116
▁favorite	-13117
▁flourish	-13118
▁focusing	-13119
▁footnote	-13120
▁frequent	-13121
▁glorious	-13122
▁grandpar	-13123
▁homeland	-13124
▁impulses	-13125
▁inactive	-13126
▁indiffer	-13127
▁insulted	-13128
▁landmark	-13129
▁leanings	-13130
▁nineteen	-13131
▁occupied	-13132
▁officers	-13133
▁outcries	-13134
▁overconf	-13135
▁princess	-13136
▁protects	-13137
▁province	-13138
▁realizes	-13139
▁reasoned	-13140
▁reassure	-13141
▁recorder	-13142
▁relevant	-13143
▁reunited	-13144
▁rewarder	-13145
▁shocking	-13146
▁stepping	-13147
▁tolerate	-13148
▁unemploy	-13149
▁unveiled	-13150
▁Antandroy	-13151
▁Ashtaroth	-13152
▁Caribbean	-13153
▁Christmas	-13154
▁Cleveland	-13155
▁Elimelech	-13156
▁Jehoaddah	-13157
▁Kornelius	-13158
▁Machpelah	-13159
▁Meanwhile	-13160
▁Mehetabel	-13161
▁Sacrifice	-13162
▁Zaanannim	-13163
▁Zerahites	-13164
▁addiction	-13165
▁announced	-13166
▁assisting	-13167
▁attracted	-13168
▁awareness	-13169
▁brochures	-13170
▁confirmed	-13171
▁conflicts	-13172
▁countless	-13173
▁criminals	-13174
▁criticism	-13175
▁defending	-13176
▁depressed	-13177
▁desirable	-13178
▁disasters	-13179
▁displaced	-13180
▁disregard	-13181
▁distorted	-13182
▁emphasize	-13183
▁exchanged	-13184
▁extremely	-13185
▁favorably	-13186
▁festivals	-13187
▁fishermen	-13188
▁graduated	-13189
▁heritages	-13190
▁humankind	-13191
▁imitators	-13192
▁immediate	-13193
▁karpenter	-13194
▁katapault	-13195
▁liberated	-13196
▁malicious	-13197
▁malleable	-13198
▁marriages	-13199
▁naturally	-13200
▁passersby	-13201
▁physician	-13202
▁pioneered	-13203
▁practiced	-13204
▁realistic	-13205
▁reassured	-13206
▁reception	-13207
▁reinforce	-13208
▁rejecting	-13209
▁restraint	-13210
▁schooling	-13211
▁sentiment	-13212
▁struggles	-13213
▁surpasses	-13214
▁teenagers	-13215
▁testament	-13216
▁traveller	-13217
▁undermine	-13218
▁universal	-13219
▁unwilling	-13220
instruments	-13221
▁Especially	-13222
▁Gennesaret	-13223
▁Geshurites	-13224
▁Gibeonites	-13225
▁Hebronites	-13226
▁Illustrate	-13227
▁Individual	-13228
▁Kiriathaim	-13229
▁Meditating	-13230
▁Meshezabel	-13231
▁Methuselah	-13232
▁Mistelbach	-13233
▁Propaganda	-13234
▁Rechabites	-13235
▁Samaritans	-13236
▁Sepharvaim	-13237
▁Strengthen	-13238
▁Thankfully	-13239
▁Yourselves	-13240
▁absolutely	-13241
▁accidental	-13242
▁acquainted	-13243
▁adjustment	-13244
▁administer	-13245
▁apologized	-13246
▁approaches	-13247
▁archaeolog	-13248
▁chrysolite	-13249
▁commenting	-13250
▁conquering	-13251
▁definitely	-13252
▁department	-13253
▁disastrous	-13254
▁distracted	-13255
▁distressed	-13256
▁electronic	-13257
▁endeavored	-13258
▁fulfilling	-13259
▁girlfriend	-13260
▁intentions	-13261
▁materially	-13262
▁mistakenly	-13263
▁mistreated	-13264
▁obediently	-13265
▁observance	-13266
▁overseeing	-13267
▁prophecies	-13268
▁prosperity	-13269
▁questioned	-13270
▁reinforced	-13271
▁reinstated	-13272
▁respecting	-13273
▁retirement	-13274
▁scientific	-13275
▁separately	-13276
▁submission	-13277
▁symbolized	-13278
▁tendencies	-13279
▁unbaptized	-13280
▁upbringing	-13281
▁Ishmaelites	-13282
▁accordingly	-13283
▁beautifully	-13284
▁communicate	-13285
▁consciences	-13286
▁contributes	-13287
▁cornerstone	-13288
▁desperately	-13289
▁distressful	-13290
▁embarrassed	-13291
▁frightening	-13292
▁identifying	-13293
▁inspiration	-13294
▁instructors	-13295
▁necessarily	-13296
▁overlooking	-13297
▁proclaiming	-13298
▁reassurance	-13299
▁recognition	-13300
▁requirement	-13301
▁sekonsishon	-13302
▁transformed	-13303
▁uncleanness	-13304
▁undoubtedly	-13305
▁apprehensive	-13306
▁courageously	-13307
▁developments	-13308
▁discipleship	-13309
▁frankincense	-13310
▁materialized	-13311
▁unreasonable	-13312
▁accomplishing	-13313
▁disagreements	-13314
▁transgressions	-13315
▁wholeheartedly	-13316
05	-13317
2.	-13318
3,	-13319
6,	-13320
AL	-13321
AN	-13322
Ag	-13323
CC	-13324
PO	-13325
Se	-13326
UL	-13327
UR	-13328
Un	-13329
aj	-13330
du	-13331
ev	-13332
ka	-13333
sw	-13334
ys	-13335
zi	-13336
30.	-13337
50.	-13338
500	-13339
Bad	-13340
DAN	-13341
Deb	-13342
ENT	-13343
Eli	-13344
HEW	-13345
Hag	-13346
Her	-13347
May	-13348
Mer	-13349
Per	-13350
ROM	-13351
TER	-13352
Zeb	-13353
ais	-13354
arc	-13355
bab	-13356
bia	-13357
bre	-13358
coh	-13359
cum	-13360
dat	-13361
eel	-13362
eni	-13363
eus	-13364
fat	-13365
ffe	-13366
fty	-13367
git	-13368
gor	-13369
his	-13370
nai	-13371
ohe	-13372
oli	-13373
pha	-13374
suo	-13375
tam	-13376
uan	-13377
ude	-13378
vre	-13379
zez	-13380
”).	-13381
▁BI	-13382
▁GO	-13383
▁Hy	-13384
▁IT	-13385
▁LO	-13386
▁PA	-13387
▁ST	-13388
▁Sa	-13389
▁Um	-13390
▁ig	-13391
▁kr	-13392
,400	-13393
Evry	-13394
Jeho	-13395
Kill	-13396
Leta	-13397
Levi	-13398
List	-13399
Meon	-13400
Shua	-13401
TTEN	-13402
abah	-13403
ache	-13404
acts	-13405
adam	-13406
aism	-13407
akus	-13408
alti	-13409
aped	-13410
aska	-13411
ateg	-13412
aten	-13413
aval	-13414
avir	-13415
blow	-13416
cast	-13417
chan	-13418
chem	-13419
cius	-13420
cord	-13421
ears	-13422
eled	-13423
elel	-13424
enni	-13425
ethe	-13426
etus	-13427
feit	-13428
gett	-13429
host	-13430
iary	-13431
idig	-13432
ijam	-13433
inic	-13434
isen	-13435
lead	-13436
lene	-13437
lord	-13438
mate	-13439
moab	-13440
moni	-13441
mosp	-13442
nown	-13443
ocks	-13444
odge	-13445
oice	-13446
onge	-13447
orus	-13448
otai	-13449
pipe	-13450
qual	-13451
rake	-13452
reek	-13453
sive	-13454
ster	-13455
tear	-13456
tong	-13457
ueen	-13458
uice	-13459
ules	-13460
ulus	-13461
umin	-13462
veni	-13463
with	-13464
your	-13465
zard	-13466
▁1,3	-13467
▁1,7	-13468
▁117	-13469
▁151	-13470
▁250	-13471
▁4.5	-13472
▁ALL	-13473
▁Baz	-13474
▁Bib	-13475
▁Dog	-13476
▁Egl	-13477
▁Ela	-13478
▁Gle	-13479
▁Gob	-13480
▁Gra	-13481
▁Hof	-13482
▁Hun	-13483
▁Ion	-13484
▁Kit	-13485
▁MAR	-13486
▁Meh	-13487
▁Neg	-13488
▁Own	-13489
▁Pul	-13490
▁Raf	-13491
▁Sek	-13492
▁Sen	-13493
▁Spr	-13494
▁Tad	-13495
▁Tre	-13496
▁Zor	-13497
▁cas	-13498
▁fed	-13499
▁fox	-13500
▁haw	-13501
▁hym	-13502
▁kit	-13503
▁lil	-13504
▁mov	-13505
▁pad	-13506
▁pho	-13507
▁tur	-13508
▁wax	-13509
Again	-13510
Bring	-13511
DANCE	-13512
Sefer	-13513
Sidan	-13514
aanah	-13515
adder	-13516
agger	-13517
ahili	-13518
akaya	-13519
allai	-13520
alted	-13521
angas	-13522
arnel	-13523
astic	-13524
athet	-13525
atory	-13526
avant	-13527
aviah	-13528
chest	-13529
ealed	-13530
eling	-13531
endix	-13532
equal	-13533
erted	-13534
faced	-13535
flame	-13536
grass	-13537
helah	-13538
hooks	-13539
igory	-13540
inate	-13541
irgit	-13542
ishes	-13543
kribe	-13544
leine	-13545
ocked	-13546
onaya	-13547
ouths	-13548
power	-13549
raged	-13550
raska	-13551
reams	-13552
rites	-13553
rived	-13554
snake	-13555
temis	-13556
trays	-13557
ulers	-13558
usual	-13559
uting	-13560
vites	-13561
water	-13562
wives	-13563
▁1920	-13564
▁1933	-13565
▁1942	-13566
▁Aiah	-13567
▁Arod	-13568
▁Aven	-13569
▁Bish	-13570
▁Bith	-13571
▁Came	-13572
▁Chel	-13573
▁Coun	-13574
▁Doda	-13575
▁Earn	-13576
▁Entr	-13577
▁Evri	-13578
▁Eyes	-13579
▁FROM	-13580
▁Fall	-13581
▁Fine	-13582
▁Golg	-13583
▁Hefa	-13584
▁Hell	-13585
▁Hist	-13586
▁Hoph	-13587
▁Hosp	-13588
▁Icon	-13589
▁Ikon	-13590
▁Iron	-13591
▁Jeta	-13592
▁Kark	-13593
▁Kwik	-13594
▁Lene	-13595
▁MANY	-13596
▁Maaz	-13597
▁Mama	-13598
▁Mont	-13599
▁None	-13600
▁Pine	-13601
▁Plus	-13602
▁Pool	-13603
▁Prot	-13604
▁Purp	-13605
▁Rejo	-13606
▁Rich	-13607
▁Said	-13608
▁Shar	-13609
▁Shen	-13610
▁Shua	-13611
▁Stra	-13612
▁Suit	-13613
▁Teko	-13614
▁Tirh	-13615
▁Trut	-13616
▁Tych	-13617
▁Unni	-13618
▁Uppa	-13619
▁Urdu	-13620
▁Wind	-13621
▁aloe	-13622
▁astr	-13623
▁bind	-13624
▁chem	-13625
▁chuk	-13626
▁club	-13627
▁code	-13628
▁cris	-13629
▁cuts	-13630
▁dism	-13631
▁dram	-13632
▁egot	-13633
▁fash	-13634
▁flax	-13635
▁fost	-13636
▁gang	-13637
▁gems	-13638
▁heir	-13639
▁joys	-13640
▁koun	-13641
▁laid	-13642
▁lump	-13643
▁mane	-13644
▁migr	-13645
▁mule	-13646
▁pair	-13647
▁pans	-13648
▁pins	-13649
▁plea	-13650
▁pose	-13651
▁prog	-13652
▁pron	-13653
▁rash	-13654
▁sash	-13655
▁shop	-13656
▁stub	-13657
▁tips	-13658
▁tomb	-13659
▁unhe	-13660
▁untr	-13661
▁womb	-13662
▁worn	-13663
Daniel	-13664
Elijah	-13665
Gilead	-13666
Listin	-13667
Samuel	-13668
acting	-13669
ancing	-13670
ansing	-13671
apable	-13672
archus	-13673
asphem	-13674
bethon	-13675
cially	-13676
coming	-13677
enness	-13678
erable	-13679
eshons	-13680
farmer	-13681
gazine	-13682
handed	-13683
idigba	-13684
igious	-13685
ishons	-13686
issner	-13687
itable	-13688
itutes	-13689
keeper	-13690
liness	-13691
maacah	-13692
onsive	-13693
plates	-13694
portor	-13695
ricted	-13696
second	-13697
shatha	-13698
tarily	-13699
tingly	-13700
urious	-13701
voiced	-13702
▁1,100	-13703
▁1,500	-13704
▁7,500	-13705
▁9,000	-13706
▁ATTEN	-13707
▁Ahohi	-13708
▁Anita	-13709
▁Ariok	-13710
▁Avoid	-13711
▁Baana	-13712
▁Beeri	-13713
▁Besor	-13714
▁Bezek	-13715
▁Bluff	-13716
▁Build	-13717
▁Child	-13718
▁Chile	-13719
▁Diana	-13720
▁Dirty	-13721
▁Elath	-13722
▁Ephah	-13723
▁Focus	-13724
▁Gebal	-13725
▁Geder	-13726
▁Giver	-13727
▁Goals	-13728
▁Grass	-13729
▁Guard	-13730
▁Guest	-13731
▁Haggi	-13732
▁Henry	-13733
▁Honga	-13734
▁Ibzan	-13735
▁Imnah	-13736
▁Ivvah	-13737
▁Izrah	-13738
▁Jafia	-13739
▁Jekam	-13740
▁Joyce	-13741
▁Junia	-13742
▁Karry	-13743
▁Local	-13744
▁Malki	-13745
▁Marie	-13746
▁Mered	-13747
▁Meron	-13748
▁Mesha	-13749
▁Milan	-13750
▁Misef	-13751
▁Nahat	-13752
▁Reach	-13753
▁Rezon	-13754
▁Rimon	-13755
▁Serah	-13756
▁Shash	-13757
▁Shuah	-13758
▁Socoh	-13759
▁Stand	-13760
▁Tahan	-13761
▁Tebes	-13762
▁Tract	-13763
▁Troph	-13764
▁Union	-13765
▁Woods	-13766
▁accum	-13767
▁adequ	-13768
▁agate	-13769
▁alarm	-13770
▁ample	-13771
▁arrog	-13772
▁autom	-13773
▁beach	-13774
▁bells	-13775
▁bolts	-13776
▁bonds	-13777
▁boxer	-13778
▁breat	-13779
▁cease	-13780
▁cheap	-13781
▁coast	-13782
▁coral	-13783
▁cream	-13784
▁cried	-13785
▁decre	-13786
▁depos	-13787
▁dilig	-13788
▁docum	-13789
▁dodge	-13790
▁dread	-13791
▁drown	-13792
▁etern	-13793
▁float	-13794
▁foref	-13795
▁fraud	-13796
▁garri	-13797
▁harps	-13798
▁helpa	-13799
▁homet	-13800
▁idols	-13801
▁inapp	-13802
▁incor	-13803
▁infer	-13804
▁inval	-13805
▁items	-13806
▁kwaya	-13807
▁lesin	-13808
▁lonel	-13809
▁lowly	-13810
▁madam	-13811
▁manip	-13812
▁memor	-13813
▁midst	-13814
▁mists	-13815
▁neckl	-13816
▁range	-13817
▁rapid	-13818
▁rebel	-13819
▁sands	-13820
▁seers	-13821
▁shark	-13822
▁skool	-13823
▁sland	-13824
▁spade	-13825
▁sparo	-13826
▁staff	-13827
▁surre	-13828
▁sworn	-13829
▁techn	-13830
▁tempa	-13831
▁thumb	-13832
▁trigg	-13833
▁troat	-13834
▁unlim	-13835
▁unres	-13836
▁vegit	-13837
▁vivid	-13838
▁wages	-13839
▁walks	-13840
▁weeds	-13841
▁whist	-13842
▁witch	-13843
▁withd	-13844
Anytime	-13845
anation	-13846
autiful	-13847
burning	-13848
chemish	-13849
circles	-13850
comings	-13851
emplary	-13852
emption	-13853
forward	-13854
ictoria	-13855
ificent	-13856
inneret	-13857
ipients	-13858
ivities	-13859
osexual	-13860
porteur	-13861
respond	-13862
support	-13863
tongued	-13864
uddenly	-13865
▁30,000	-13866
▁50,000	-13867
▁70,000	-13868
▁Abijam	-13869
▁Achsah	-13870
▁Answer	-13871
▁Antich	-13872
▁Beyond	-13873
▁Bibles	-13874
▁Birgit	-13875
▁Desert	-13876
▁Design	-13877
▁Forest	-13878
▁Gangas	-13879
▁Haggit	-13880
▁Huppim	-13881
▁Ionash	-13882
▁Jaakan	-13883
▁Japhia	-13884
▁Judith	-13885
▁Lemuel	-13886
▁Likely	-13887
▁Lysias	-13888
▁Malchi	-13889
▁Migdal	-13890
▁Milkom	-13891
▁Mutsuo	-13892
▁Nahath	-13893
▁Nashon	-13894
▁Neraya	-13895
▁Olinda	-13896
▁Origin	-13897
▁Pirath	-13898
▁Prisca	-13899
▁Reaaya	-13900
▁Record	-13901
▁Settle	-13902
▁Sirion	-13903
▁Staten	-13904
▁Wisely	-13905
▁Youths	-13906
▁Zealot	-13907
▁accord	-13908
▁anchor	-13909
▁andthe	-13910
▁arrive	-13911
▁atmosp	-13912
▁attent	-13913
▁banned	-13914
▁beauty	-13915
▁begged	-13916
▁bishop	-13917
▁blades	-13918
▁bottol	-13919
▁bowman	-13920
▁casual	-13921
▁cloths	-13922
▁dances	-13923
▁deaths	-13924
▁demean	-13925
▁disord	-13926
▁domest	-13927
▁engine	-13928
▁exerts	-13929
▁fought	-13930
▁fuller	-13931
▁gambol	-13932
▁glance	-13933
▁goings	-13934
▁hearer	-13935
▁intens	-13936
▁intent	-13937
▁koboko	-13938
▁ladder	-13939
▁lilies	-13940
▁lining	-13941
▁lizard	-13942
▁longed	-13943
▁massed	-13944
▁mechan	-13945
▁occurs	-13946
▁online	-13947
▁papers	-13948
▁paraly	-13949
▁pigeon	-13950
▁pillow	-13951
▁player	-13952
▁policy	-13953
▁pomade	-13954
▁portor	-13955
▁proced	-13956
▁rebels	-13957
▁reluct	-13958
▁resort	-13959
▁scarce	-13960
▁souled	-13961
▁spared	-13962
▁spider	-13963
▁splend	-13964
▁sponge	-13965
▁sticky	-13966
▁strife	-13967
▁strike	-13968
▁stroke	-13969
▁tester	-13970
▁tithes	-13971
▁tragic	-13972
▁trains	-13973
▁unresp	-13974
▁videos	-13975
atically	-13976
gressive	-13977
ications	-13978
sounding	-13979
together	-13980
▁Account	-13981
▁African	-13982
▁Agagite	-13983
▁Ahohite	-13984
▁Akordin	-13985
▁Alemeth	-13986
▁Archite	-13987
▁Armavir	-13988
▁Astarte	-13989
▁Ataroth	-13990
▁Basemat	-13991
▁Bearing	-13992
▁Between	-13993
▁Central	-13994
▁Challen	-13995
▁Changes	-13996
▁Chimham	-13997
▁Comfort	-13998
▁Commend	-13999
▁Consequ	-14000
▁Deacons	-14001
▁Develop	-14002
▁Eliasaf	-14003
▁Elishua	-14004
▁Eritrea	-14005
▁Eternal	-14006
▁Evening	-14007
▁Friends	-14008
▁Getting	-14009
▁Grigory	-14010
▁Haggith	-14011
▁Hazerot	-14012
▁Iconium	-14013
▁Ikonium	-14014
▁Jahleel	-14015
▁Jeshaya	-14016
▁Judaism	-14017
▁MATTHEW	-14018
▁Moabite	-14019
▁Naharai	-14020
▁Nashons	-14021
▁Nebaiot	-14022
▁Nicolas	-14023
▁Offered	-14024
▁Outside	-14025
▁Pathros	-14026
▁Piraton	-14027
▁Priests	-14028
▁Reading	-14029
▁Seeking	-14030
▁Shaking	-14031
▁Shemida	-14032
▁Shethar	-14033
▁Shillem	-14034
▁Shutela	-14035
▁Swahili	-14036
▁Thummim	-14037
▁Unhappy	-14038
▁Upright	-14039
▁Writing	-14040
▁Zaretan	-14041
▁advised	-14042
▁anticip	-14043
▁anymore	-14044
▁approve	-14045
▁arguing	-14046
▁barrier	-14047
▁bathing	-14048
▁blanket	-14049
▁bloodgu	-14050
▁bondage	-14051
▁booklet	-14052
▁charges	-14053
▁chronic	-14054
▁claimed	-14055
▁colours	-14056
▁conform	-14057
▁cunning	-14058
▁deakons	-14059
▁deceits	-14060
▁degrees	-14061
▁demands	-14062
▁depends	-14063
▁discrim	-14064
▁dispute	-14065
▁donated	-14066
▁donkeys	-14067
▁egotism	-14068
▁embrace	-14069
▁extends	-14070
▁failing	-14071
▁farming	-14072
▁fishers	-14073
▁flatter	-14074
▁fosters	-14075
▁gallons	-14076
▁gidigba	-14077
▁grindin	-14078
▁harshly	-14079
▁heading	-14080
▁healing	-14081
▁hollows	-14082
▁housing	-14083
▁individ	-14084
▁karavan	-14085
▁lightly	-14086
▁lodging	-14087
▁longing	-14088
▁managed	-14089
▁massing	-14090
▁mislead	-14091
▁offices	-14092
▁outlaws	-14093
▁outlook	-14094
▁overall	-14095
▁parable	-14096
▁pension	-14097
▁planned	-14098
▁proceed	-14099
▁prophes	-14100
▁prosely	-14101
▁proving	-14102
▁reaches	-14103
▁rearing	-14104
▁restore	-14105
▁sandals	-14106
▁section	-14107
▁seeming	-14108
▁selling	-14109
▁shepads	-14110
▁smashed	-14111
▁sparrow	-14112
▁squares	-14113
▁testify	-14114
▁thanked	-14115
▁thirsty	-14116
▁traffic	-14117
▁typical	-14118
▁unaware	-14119
▁unequal	-14120
▁unusual	-14121
▁variety	-14122
▁victims	-14123
▁watches	-14124
▁western	-14125
▁wheeled	-14126
▁whereas	-14127
▁workshe	-14128
▁wrapped	-14129
▁American	-14130
▁Ashtoret	-14131
▁Atkinson	-14132
▁Basemath	-14133
▁Creation	-14134
▁Disciple	-14135
▁Eliasaph	-14136
▁Foenicia	-14137
▁Hararite	-14138
▁Hazeroth	-14139
▁Increase	-14140
▁Japanese	-14141
▁Jekonaya	-14142
▁Jeshimon	-14143
▁Kenanaya	-14144
▁Kinneret	-14145
▁Magazine	-14146
▁Meraioth	-14147
▁Naharaim	-14148
▁Nebaioth	-14149
▁Nebraska	-14150
▁Nowadays	-14151
▁Persians	-14152
▁Peterson	-14153
▁Pioneers	-14154
▁Rehabiah	-14155
▁Religion	-14156
▁Sibbecai	-14157
▁Straight	-14158
▁Suddenly	-14159
▁Tychicus	-14160
▁acquaint	-14161
▁almighty	-14162
▁apostasy	-14163
▁appealed	-14164
▁appendix	-14165
▁approved	-14166
▁backbone	-14167
▁begotten	-14168
▁blasphem	-14169
▁capacity	-14170
▁consumed	-14171
▁crossing	-14172
▁customer	-14173
▁deceived	-14174
▁deciding	-14175
▁defeated	-14176
▁diskribe	-14177
▁dominant	-14178
▁dominate	-14179
▁elevated	-14180
▁eternity	-14181
▁evenings	-14182
▁examines	-14183
▁facility	-14184
▁farthing	-14185
▁fifteent	-14186
▁finances	-14187
▁follower	-14188
▁freeness	-14189
▁gracious	-14190
▁hometown	-14191
▁humanity	-14192
▁incident	-14193
▁interfer	-14194
▁kingship	-14195
▁kweshons	-14196
▁landlord	-14197
▁mandrake	-14198
▁mentally	-14199
▁midnight	-14200
▁misusing	-14201
▁needless	-14202
▁normally	-14203
▁outright	-14204
▁partners	-14205
▁perfumed	-14206
▁prestige	-14207
▁quarters	-14208
▁refusing	-14209
▁reliance	-14210
▁reminder	-14211
▁repented	-14212
▁restrain	-14213
▁schedule	-14214
▁searcher	-14215
▁services	-14216
▁sessions	-14217
▁settling	-14218
▁severely	-14219
▁shouting	-14220
▁sikamore	-14221
▁skorpion	-14222
▁smelling	-14223
▁steering	-14224
▁sticking	-14225
▁striking	-14226
▁stubborn	-14227
▁suggests	-14228
▁supplies	-14229
▁supposed	-14230
▁symbolic	-14231
▁throwing	-14232
▁treating	-14233
▁unjustly	-14234
▁unloving	-14235
▁whipping	-14236
worthiness	-14237
▁Advertise	-14238
▁Afterward	-14239
▁Alexander	-14240
▁Aristakus	-14241
▁Chenaanah	-14242
▁Disciples	-14243
▁Ephrathah	-14244
▁Evriwhere	-14245
▁Gibbethon	-14246
▁Gleissner	-14247
▁Hammedata	-14248
▁Madeleine	-14249
▁Mountains	-14250
▁Shelomith	-14251
▁Shelomoth	-14252
▁Shilonite	-14253
▁Shuthelah	-14254
▁Tirshatha	-14255
▁acquiring	-14256
▁adulthood	-14257
▁aeroplane	-14258
▁animosity	-14259
▁arranging	-14260
▁attempted	-14261
▁baptizing	-14262
▁brotherly	-14263
▁brushwood	-14264
▁certainty	-14265
▁cherished	-14266
▁collected	-14267
▁commander	-14268
▁completed	-14269
▁conquered	-14270
▁converted	-14271
▁corrupted	-14272
▁deception	-14273
▁deserving	-14274
▁desperate	-14275
▁displease	-14276
▁disturbed	-14277
▁exclaimed	-14278
▁exemplary	-14279
▁expensive	-14280
▁expresses	-14281
▁flowering	-14282
▁fortified	-14283
▁grandmama	-14284
▁incapable	-14285
▁inhabited	-14286
▁kollector	-14287
▁messenger	-14288
▁neglected	-14289
▁objective	-14290
▁oversight	-14291
▁permitted	-14292
▁policeman	-14293
▁pressured	-14294
▁prevented	-14295
▁professor	-14296
▁projector	-14297
▁prospects	-14298
▁proteshon	-14299
▁receptive	-14300
▁regretted	-14301
▁reminding	-14302
▁seemingly	-14303
▁separated	-14304
▁stressful	-14305
▁succeeded	-14306
▁tactfully	-14307
▁unlimited	-14308
▁upholding	-14309
▁vegitabol	-14310
▁wrestling	-14311
▁ATTENDANCE	-14312
▁Benjamites	-14313
▁Carchemish	-14314
▁Commission	-14315
▁Galilaeans	-14316
▁Girgashite	-14317
▁Hammedatha	-14318
▁Hushathite	-14319
▁Pelethites	-14320
▁aggressive	-14321
▁atmosphere	-14322
▁attractive	-14323
▁beforehand	-14324
▁benefiting	-14325
▁collection	-14326
▁colporteur	-14327
▁committing	-14328
▁consulting	-14329
▁containing	-14330
▁correspond	-14331
▁cultivator	-14332
▁descendant	-14333
▁diligently	-14334
▁disrespect	-14335
▁disturbing	-14336
▁frustrated	-14337
▁guidelines	-14338
▁homosexual	-14339
▁identifies	-14340
▁introduced	-14341
▁kilometers	-14342
▁kommanders	-14343
▁kwayamasta	-14344
▁loneliness	-14345
▁mentioning	-14346
▁ordinashon	-14347
▁peacefully	-14348
▁performing	-14349
▁permission	-14350
▁persevered	-14351
▁possession	-14352
▁prejudices	-14353
▁priesthood	-14354
▁proclaimed	-14355
▁profession	-14356
▁progressed	-14357
▁prosperous	-14358
▁reassuring	-14359
▁reconciled	-14360
▁reconsider	-14361
▁reputation	-14362
▁restricted	-14363
▁sanctified	-14364
▁sentiments	-14365
▁standpoint	-14366
▁submitting	-14367
▁superhuman	-14368
▁ultimately	-14369
▁unpleasing	-14370
▁unreserved	-14371
▁Aristarchus	-14372
▁Differences	-14373
▁Individuals	-14374
▁Personality	-14375
▁appointment	-14376
▁backgrounds	-14377
▁communities	-14378
▁controllers	-14379
▁counterfeit	-14380
▁destination	-14381
▁determining	-14382
▁disobedient	-14383
▁distinction	-14384
▁drunkenness	-14385
▁educational	-14386
▁enslavement	-14387
▁exceptional	-14388
▁excessively	-14389
▁explanation	-14390
▁financially	-14391
▁grandmother	-14392
▁magnificent	-14393
▁observation	-14394
▁peacemakers	-14395
▁permanently	-14396
▁possibility	-14397
▁recommended	-14398
▁respectable	-14399
▁seventeenth	-14400
▁temporarily	-14401
▁temptations	-14402
▁threatening	-14403
▁treacherous	-14404
▁trustworthy	-14405
▁unbelievers	-14406
▁unification	-14407
▁voluntarily	-14408
▁Consequently	-14409
▁Construction	-14410
▁Organization	-14411
▁announcement	-14412
▁blackberries	-14413
▁compromising	-14414
▁contributing	-14415
▁discouraging	-14416
▁establishing	-14417
▁grandparents	-14418
▁householders	-14419
▁impartiality	-14420
▁inclinations	-14421
▁individually	-14422
▁perseverance	-14423
▁shortcomings	-14424
▁surroundings	-14425
▁translations	-14426
▁truthfulness	-14427
▁unresponsive	-14428
▁contemplating	-14429
▁inappropriate	-14430
▁overconfident	-14431
▁progressively	-14432
▁resurrections	-14433
▁accomplishment	-14434
▁appreciatively	-14435
▁disappointment	-14436
▁discrimination	-14437
▁presumptuously	-14438
.3	-14439
0,	-14440
50	-14441
54	-14442
AM	-14443
CA	-14444
ET	-14445
FE	-14446
GE	-14447
HN	-14448
SE	-14449
Tw	-14450
UT	-14451
mb	-14452
no	-14453
sc	-14454
tl	-14455
tt	-14456
wl	-14457
yy	-14458
yz	-14459
,22	-14460
Abi	-14461
Dia	-14462
HER	-14463
HIL	-14464
Har	-14465
Ivo	-14466
Jos	-14467
LES	-14468
Mas	-14469
Oya	-14470
TIM	-14471
Zur	-14472
aah	-14473
acm	-14474
acz	-14475
anu	-14476
asl	-14477
ato	-14478
atu	-14479
awk	-14480
aza	-14481
bak	-14482
bat	-14483
bek	-14484
cal	-14485
cla	-14486
cur	-14487
dip	-14488
eam	-14489
ebe	-14490
emy	-14491
eyn	-14492
feg	-14493
fes	-14494
fit	-14495
gon	-14496
hny	-14497
hog	-14498
idi	-14499
BBR	-14500
iji	-14501
ils	-14502
ipa	-14503
isi	-14504
iti	-14505
iyu	-14506
izk	-14507
lad	-14508
nat	-14509
net	-14510
obi	-14511
ofJ	-14512
oil	-14513
oim	-14514
oto	-14515
oug	-14516
rab	-14517
ras	-14518
rob	-14519
ruz	-14520
sei	-14521
sia	-14522
tes	-14523
tha	-14524
tol	-14525
uko	-14526
ulc	-14527
uld	-14528
uty	-14529
uya	-14530
vor	-14531
was	-14532
xas	-14533
zam	-14534
zed	-14535
zeh	-14536
zig	-14537
▁92	-14538
▁93	-14539
▁AD	-14540
▁AM	-14541
▁AT	-14542
▁Da	-14543
▁Ec	-14544
▁IF	-14545
▁MY	-14546
▁Ti	-14547
▁cm	-14548
Aven	-14549
Cart	-14550
Fero	-14551
Gada	-14552
Good	-14553
IAST	-14554
Josh	-14555
Mama	-14556
Mary	-14557
Most	-14558
STLE	-14559
Stre	-14560
THER	-14561
That	-14562
Zion	-14563
acan	-14564
acia	-14565
adel	-14566
ador	-14567
adyk	-14568
ahir	-14569
aire	-14570
alia	-14571
alom	-14572
amai	-14573
amas	-14574
ands	-14575
anor	-14576
ardo	-14577
arib	-14578
arly	-14579
atur	-14580
atus	-14581
aveh	-14582
away	-14583
azin	-14584
azor	-14585
beel	-14586
bian	-14587
chew	-14588
clop	-14589
core	-14590
crus	-14591
dees	-14592
edia	-14593
egal	-14594
ekod	-14595
emah	-14596
enan	-14597
enas	-14598
enez	-14599
enon	-14600
eoli	-14601
erms	-14602
eros	-14603
esed	-14604
fers	-14605
ffee	-14606
ffin	-14607
fulf	-14608
gamy	-14609
hawk	-14610
high	-14611
hoff	-14612
ibly	-14613
iche	-14614
icke	-14615
idad	-14616
idah	-14617
idge	-14618
iece	-14619
ilia	-14620
ilus	-14621
imos	-14622
inct	-14623
inon	-14624
insk	-14625
irin	-14626
itor	-14627
itta	-14628
ivul	-14629
ixes	-14630
iyah	-14631
lehu	-14632
leit	-14633
maus	-14634
meam	-14635
medi	-14636
mits	-14637
ndez	-14638
neel	-14639
niel	-14640
odox	-14641
olun	-14642
omin	-14643
opag	-14644
opas	-14645
ourt	-14646
paen	-14647
pone	-14648
pool	-14649
pson	-14650
ruit	-14651
shed	-14652
shop	-14653
soci	-14654
sons	-14655
thed	-14656
thes	-14657
uhim	-14658
uine	-14659
umat	-14660
umbs	-14661
unci	-14662
urun	-14663
vene	-14664
vetl	-14665
vous	-14666
week	-14667
wich	-14668
word	-14669
yard	-14670
ynia	-14671
yrna	-14672
ziel	-14673
▁1,4	-14674
▁113	-14675
▁114	-14676
▁137	-14677
▁140	-14678
▁152	-14679
▁537	-14680
▁550	-14681
▁APO	-14682
▁Ahi	-14683
▁Aks	-14684
▁Ala	-14685
▁Aly	-14686
▁Anx	-14687
▁Arr	-14688
▁Asp	-14689
▁Atr	-14690
▁Ats	-14691
▁Att	-14692
▁Biz	-14693
▁Bok	-14694
▁CON	-14695
▁Cop	-14696
▁DON	-14697
▁Dak	-14698
▁Ded	-14699
hnya	-14700
siti	-14701
▁Dik	-14702
▁Dil	-14703
▁ECC	-14704
▁Eas	-14705
▁Elz	-14706
▁Enc	-14707
▁Eri	-14708
▁Evi	-14709
▁Faj	-14710
▁GAL	-14711
▁GEN	-14712
▁GOD	-14713
▁Gel	-14714
▁Gur	-14715
▁Hop	-14716
▁Hul	-14717
▁Iph	-14718
▁Iye	-14719
▁JAS	-14720
▁Jog	-14721
▁Jor	-14722
▁Jut	-14723
▁Kef	-14724
▁Kon	-14725
▁Kur	-14726
▁Led	-14727
▁Lim	-14728
▁Lis	-14729
▁Luh	-14730
▁Moz	-14731
▁Mur	-14732
▁Mus	-14733
▁Nib	-14734
▁Nod	-14735
▁Nyz	-14736
▁Pap	-14737
▁Pas	-14738
▁Pil	-14739
▁Por	-14740
▁Rey	-14741
▁Ros	-14742
▁Seb	-14743
▁Sem	-14744
▁Sit	-14745
▁Sub	-14746
▁Sup	-14747
▁Syd	-14748
▁Tan	-14749
▁Toi	-14750
▁Tou	-14751
▁Unc	-14752
▁WAS	-14753
▁Zep	-14754
▁Zet	-14755
▁Ziv	-14756
▁Ziz	-14757
▁Zuf	-14758
▁asc	-14759
▁aud	-14760
▁bee	-14761
▁ble	-14762
▁bul	-14763
▁cam	-14764
▁cuc	-14765
▁dur	-14766
▁era	-14767
▁fos	-14768
▁gap	-14769
▁irr	-14770
▁iyu	-14771
▁lat	-14772
▁les	-14773
▁lid	-14774
▁nur	-14775
▁nut	-14776
▁ris	-14777
▁ski	-14778
▁tip	-14779
▁veh	-14780
▁vio	-14781
▁vul	-14782
,200.	-14783
16.05	-14784
16.11	-14785
16.12	-14786
17.05	-14787
17.11	-14788
17.12	-14789
Betta	-14790
DNESS	-14791
Hezek	-14792
Judas	-14793
Korah	-14794
Millo	-14795
Naomi	-14796
Purim	-14797
Rehob	-14798
Rogel	-14799
Satan	-14800
Shean	-14801
Shual	-14802
Sidon	-14803
Zedek	-14804
ables	-14805
abund	-14806
acent	-14807
adequ	-14808
adiah	-14809
ahaya	-14810
aleed	-14811
alsam	-14812
althy	-14813
ameam	-14814
ammim	-14815
andid	-14816
andol	-14817
antic	-14818
aples	-14819
arely	-14820
arked	-14821
artan	-14822
ashah	-14823
ashes	-14824
asiel	-14825
ategy	-14826
atham	-14827
attah	-14828
auran	-14829
authe	-14830
bands	-14831
berly	-14832
beton	-14833
brick	-14834
burgh	-14835
ckets	-14836
daeus	-14837
drink	-14838
eknow	-14839
elong	-14840
eltie	-14841
eneas	-14842
ented	-14843
enter	-14844
enuah	-14845
erior	-14846
eynep	-14847
fifth	-14848
front	-14849
gorod	-14850
habah	-14851
halin	-14852
heast	-14853
helam	-14854
hings	-14855
hodes	-14856
iahba	-14857
ichen	-14858
ictor	-14859
idgad	-14860
illan	-14861
imals	-14862
iment	-14863
inian	-14864
innam	-14865
ippus	-14866
irobi	-14867
ismai	-14868
issah	-14869
issed	-14870
itant	-14871
ittai	-14872
iture	-14873
itzer	-14874
joyed	-14875
ksess	-14876
monah	-14877
mount	-14878
neaya	-14879
necoh	-14880
neiah	-14881
odach	-14882
ofthe	-14883
ohesh	-14884
oints	-14885
olded	-14886
onthe	-14887
orida	-14888
orify	-14889
ornam	-14890
ounds	-14891
price	-14892
quick	-14893
rekah	-14894
roads	-14895
rogel	-14896
roper	-14897
short	-14898
shual	-14899
thias	-14900
tolad	-14901
ubael	-14902
ueens	-14903
ultiv	-14904
upham	-14905
useum	-14906
ushed	-14907
vable	-14908
wound	-14909
zedek	-14910
▁1513	-14911
▁1924	-14912
▁1925	-14913
▁1926	-14914
▁1929	-14915
▁1930	-14916
▁1932	-14917
▁1944	-14918
▁1945	-14919
▁1967	-14920
▁1971	-14921
▁1974	-14922
▁	-14923
e	-14924
o	-14925
a	-14926
t	-14927
n	-14928
i	-14929
s	-14930
r	-14931
d	-14932
h	-14933
l	-14934
m	-14935
y	-14936
w	-14937
u	-14938
f	-14939
g	-14940
p	-14941
k	-14942
,	-14943
b	-14944
c	-14945
.	-14946
v	-14947
I	-14948
A	-14949
J	-14950
G	-14951
S	-14952
[...]
